BE864110
BE41249A
3E50AC26
BE0987B2
3E63A7BF
BEBC935A
BF322989
BD200EBB
3E438CAD
3E9CBBA9
3E9AE44F
BCEE6240
BEADE56D
3F33438E
BF271116
3EC7AF88
BEF0B4BA
3F0044E6
BEFF4B29
3E3728D4
3EF2D2CB
3E0A3D1A
BF691B21
BE8E420A
3F269F25
BEBBE850
3F0C3BEE
3DE12511
BF4CB816
3E01E388
3F14DA11
3E907861
3E21A901
BF0F4ED8
3EDB3068
BE837350
3E4D5D92
BE65220F
BDE3832B
BE458F5D
BE01D98D
3BFD55C4
BC83ABD0
BE1ABB63
3D6ED540
BE9D47FE
3EC98E9B
BF09B466
BED834FC
3F0955C8
3F189A39
BF242CB4
3F17B24B
BF06D16A
BE9134A1
3D6BC660
3DF4C708
3D4BC381
3D902E87
3CCA49E4
BEA17294
BF0D1222
BF147E09
3F462D04
BD9090C2
BE637FC2
BDEB8E00
BE5BE997
3BD7F980
3E0D2A88
3E9F3BC9
BF3D9564
3E78DEF0
3F1A1E4D
BF0522DE
BF104783
3EB926D4
BEAB7AC4
3E4BC420
BE79E012
BF2BEF50
3F450638
BF490CE4
3E4F249A
3E347876
BE7F33CA
3DC182B8
3C4EF580
BE505D74
BD1F9728
BE9270B0
BF551286
3F5047B4
BCA5C91B
3D87131C
3D09E886
BE25352B
BDD8A5B6
3E0A85C4
BE29EA13
3D5C120B
BF1294AC
BE38BF62
3E66AD86
3ECE9AE6
BE6D5755
BEB821C4
3EF01F79
3F00F709
BF4AE861
3E42CE00
3E04CB74
BCCFBD88
BDD3FE88
BCCDA320
BE390835
BDCB31C9
BDE2570F
BE25B1FC
3CFBF540
3F1BD487
3F3B668A
BF1691B7
BE74368B
BF571EED
BF32555A
3E5A56BF
BE2E1977
3F195B0C
BEA9E0BD
BF2CB13A
BEAA6AFA
BE2D7349
3F0F9320
3D0794FC
BE5353CC
BDCDE00A
3F05E3E7
BDFF64ED
BF16D3C6
3E28A8EA
BF509D38
3F141684
3F06BC96
BF413784
3EDAE4CF
3EE9F0BC
BF80F282
BE756C88
3ECDDC27
3D5CFF55
BE36F300
3E52E459
BE4BC2F4
3E5953BC
3E828430
BE4E67CA
BB11F8E8
BDE54DF6
BDA1CAD2
BE8DDF4A
3E25E993
BDC52516
BEE76E3A
3ED07B8A
BE077831
3CA4B4E9
BE7DC129
3E2B2098
3E7F14C0
3D8D9B18
3D0D78A5
BBCF12AE
BDFCEAE1
3D8B2413
3E103850
BF1C4393
BF29306E
3F589A2D
3F289AB6
3E2B3402
3E61E77D
3CF49C2D
3E44C1B8
BC95817B
3F1739BB
3E936087
3DD99CE3
3E51DB1B
BF30916B
3E59577A
BE1CF100
3AD94AE6
BE7B9555
3CE3B46B
BEFE3E19
3F2EA735
BE5848F3
3ECB5848
BF5075FD
3F307A7E
3EF136D7
BDB93D1E
BF5A3B2D
BD56027C
3F04907D
BF0E5833
3EB76BF9
BF61A218
3E43F018
BF208C25
BEE63E10
3F013AC9
3F1600D0
BDC008D0
BD8654DA
3E40364A
3D44CD59
3DE06594
3D3A00E9
BF67DFA7
3F7EB9AC
BF6A01F9
3EF34160
BEC818A2
BDBCDACC
BE7AD837
BD10FF2C
3E734996
BD3D3BF8
BDC251FE
3E03F734
BCF63A90
BD8B239E
3CAA3310
BC20701C
3E6E9C0F
3E4914B9
BD701363
BC0687F3
BD33FE1E
BE44F1D0
3D9DFD54
BE1F99F7
3E7A42E5
BE1BC13A
BE37758B
BD6FF045
3E1CBC6F
BE31ADEF
BD87C184
BDEA50D8
BCE4D508
3E40EF92
BE725600
BE5D5FAF
BE5EFAB6
BD9CF244
BE15CA11
BE54C619
BDA88872
BE7F0510
3C8E3897
BE1F5C25
3E4018DB
BEE5171B
BDDBBE56
BED8A17A
BED4F40D
3F2A39E4
BD286B55
3E48ABEE
BDAC4C8A
3E81547B
BE7994A9
BD26CC78
3E2F8B9C
3C323959
3D8DB279
BE658673
3D25D484
BE53B7FB
3E17F7AD
BD2B610C
BE55260C
BD0675B0
3E0FAC9B
BCFF8CBA
3E166FB9
BDDB1E2E
3D9AD9E0
3E844639
BE5351A8
3D65D480
BE311A4A
BE31DFE8
3DA1ECD5
3DD9219D
BE829852
3DBAD462
BCA240D8
3DA3D254
3E7C8FC2
3E530E42
BE0B2B9F
BDE748BE
3F8C6AC6
BFD43F55
3DE46EE4
BF3B0DFD
BED9F2B9
BF03D594
3F1365EF
BECF95E2
3DDB5D4A
BE830F69
3F589DA2
BF19DC05
3F147CD6
BF2908B7
3E8369B7
3E46CE94
3CE3B370
BBEAD840
BCC05838
3EDF9EB5
BF1A9956
3E93E8BC
BF65B2C4
BEFF277D
3C0CFB38
BD8732BD
3CE940C4
BE439271
BE2D3C2E
BDC3F9DC
BDB6802C
3DAF2CED
3E185420
BDB19FE2
3E58D318
3E4A3AF6
3CAD65C0
3E1EAEAC
3E35747C
3ECA4BFC
BF6E7CE5
BE8810C3
3EBDCD21
3F417D01
BECEC35B
3EA9BFAC
3E220118
BF189834
BF308B32
BE63AC9C
BDA271D6
3E3E5F9E
BE7F5896
BE5F77B8
BF834DA9
3E9E2C1D
3F833B8E
BDAB647C
BF6A31B2
BE434F2D
3E655AFC
BD615EFE
BDFD5335
3D0362EF
BF09F865
3DD80841
3DEF803A
BE41F54C
3D649220
3D6D5078
BE7C3579
3DBEABFC
3E5443A0
3E3492E4
3E8533B0
BDC471BF
BE0FF039
BD135733
BDC606FE
3F100F6B
3ED501D5
3E92126B
BF5E54E9
BEB8CB94
3E1FA54B
BE822A15
BCD477C9
BE8624B4
3DBEADCD
3F3297D6
3F713DAE
BFAEDE70
3E8682B6
BE881514

