3D0018E2
3D9A95F2
3CD2FA96
BDEA39DB
3E4E8144
BD8C475F
BE229894
BDAA5302
3C8E4905
3E15D2D2
BE3DA2E4
3D63C3B9
3E807ECC
BD94A1AE
BE28EB08
3D97F0FE
3E7F2025
BCBC4B3C
BE5E01EC
BDB553BE
3DC65F8E
BE28B9D9
BDC3C5F7
BC5B35AC
3E12B79B
3D96802B
3DCEF339
BE247BE7
BE650505
3DF338F6
BDB689B4
BCBD96BC
3C8A2939
3C9E33BE
BD12BE4C
3E109359
3C83D0B9
BDC0C9DB
3DA81187
3C56D6D0
3B1D8E02
BE313833
BE09C37C
BD66409D
3EBFFC15
3D73E982
BD88AE32
3DA5BF19
3D687E94
BD257D56
BDBF0807
BD4ECC09
BDBA109F
3E20055D
3CBCBCF8
BDC526B1
3DA05A66
BC973B79
BC851A6C
3D810AF8
BB2DF9E0
BD19F1DA
BE3DD45A
3EA102CB
BC65EDB0
BE85CB60
3CA69E4C
3D21DF38
3D06652A
3C4BAF31
BCAEA2BA
BD958615
BE2DAA73
BD9CAE2C
BDA47E21
BDBA9DAD
BDBBDD01
BE22B5F9
BDB359D6
3D834B70
BCB6D5CB
3D7E9350
3D79B46B
BE2802D6
3E2528E1
BCDA3A6B
BDFE7232
BD658B96
3B7733B6
3D78B5C0
BDC65641
3C87A5D2
3E23EA28
BD4794F8
BE0AD48D
3E1EB48F
3DE9D5E9
3DB37867
BDE37804
BCBECA86
3DE81B2A
BE0AB13C
BD6FB8CD
3D726819
3DD09C44
3D42E942
3E354661
BE57417F
BE1C79B6
3E85F3A9
BD9FA483
BDC9956B
3DDFC916
3C8D047F
3CE5016E
3E49F372
3D111F51
BE2B46EB
3DA28FAE
3C85B5BE
3D30C97C
BD349C6D
BDB7E49A
3D8838BB
3EE7EF7B
3C902BD8
3ACF7740
3D0E0BDC
BD23D01B
3D36E463
BBFD34B0
3D9F7283
BDC436BA
3E458CC1
BDC99632
3D9F41CE
BD355BEF
3D417563
3D7971CA
BC130A2F
BD9CFB46
BCDD2AEB
BD572B62
3E6FE374
BC9CC4D0
BE3FABE7
3D415CAD
3D186124
3BAF8FD0
BC8CE937
3D446D8F
3D8805FD
BE45BE26
BC89BD95
3D53B426
3CE28AD8
BDA036EB
BDCE5032
3D1D6F31
3C53CA3F
BD2E4545
BD13BCF8
3C91C425
3CE1A590
3E44F97C
3D5A9B79
BBAC57D0
BDAF8B87
3DAF8E6F
3DE41C9A
BD73A7DF
BD2CC8F4
3E0811C4
BD726937
3B6DEB05
BB0FF8A5
3E0760A5
3C3165C0
BE1D8A92
3BF2AF19
3D8CE480
BE36E483
BD360F8B
3DB4FF4E
3DBFAD73
BDCB2696
3DEC1415
BE22D328
BD6179F5
3E8D25E7
3D5057BE
3D8237B0
3DECD4A5
3DAA0BEE
BC990923
3DBDB160
BC84F523
BE04D655
BD093E58
BDA447B0
3D19E692
BD1B270F
BD87A528
3D0BE783
3E9FB16F
3CF5961C
BD385C36
3DAEAE5D
BC31E9B7
3D553E39
3CC3B3D0
3D15B076
BD826611
3E1E7E7F
BD77D9DB
3C5B4D62
3D390091
BD5D88F0
3D80D03B
3D0AE401
BC4C72D0
BDE5037A
BB895CA5
3E619022
BD323266
BE0B3666
BDA0E524
BC3709F2
3DB1ADBB
3DB87853
BE19E847
3D5C8619
BE8DF7D5
BD01A5D4
BD9D7085
BDAB8EED
BD051E6F
BD8B43EF
BD432510
BB8565E5
BDC52E5E
3E095021
3D1EF6BE
3D7058A6
3E5C95C0
3D1B9A9D
3D3CD33E
BC9C44D9
3DB50301
3D1B647A
3D369C3C
3D870EB1
3DA4DFED
BD685320
BDF42979
BB8E9471
3DD07A47
3D34292A
BBA09A4D
BD39F80C
3D66EA76
BE31BAD7
BDA5EB02
3D8FC287
BD0065E0
BE23327F
BD3B1803
BDDBE244
BE0BC44E
3E5ACF58
BCCB96BA
3D028284
3CDFC4A1
BD898F3E
BC9BB362
3D7AFD79
3D3D3CD4
BD9C113C
3D3B0483
BD6040EF
3DA970DC
3D1CA7BF
BE3AB091
3B9AFD45
3E5A3E2C
3CF35FA4
BD859D20
BC4386B2
BDCAB995
BCCFEAD2
3D1A1286
3D1E4AE7
BCB0A71E
3DF2815B
BC767C2F
3B375839
3CB7D105
3DB69E8F
3DC2C8F3
BB7C7688
BD0CA845
BE1D4250
BDD3A505
3E1EF3E2
BC57CBA8
3CDE3ED6
BDA15FDF
3B9ADC62
3DA8EC4F
3E412F42
BDCE36D8
3DB2BFE9
BE7CD28C
BDBC8DFA
BDBAD981
3D0AAAFA
3CB86525
BDC1B958
3D949140
3DE15AEA
BCF702F8
3E1D2640
3DE53296
3BF3ED7C
3E713D8B
BD812D4F
3E2B79C2
BCA1C0B0
BDA2768E
3D22F457
BD1EC9C5
BD0323F6
3DE02363
BC6D55F8
3DB38A42
BE2AAEC2
3BD8D358
BCA17C90
BD7B15CE
3D5F7D3E
3DFB98B5
BCCA9A1A
BD9C3E49
BD43C74A
BDD1327C
BE10F4A2
3CFAA922
BDF4B7CB
BD89ACBA
3E25669B
3D05B5A9
BD521B01
3DF7F7AE
3D5C62AF
BC8A2CA2
3DC785E3
BDA8B38B
BE10DD54
3D26E6D0
BE040796
BD7C6EF6
3DBE262E
3CA64439
BC7200CA
BD5BE62F
BD02B940
3D3409FA
3DB41612
3D21713C
BCA648AD
BC2D5448
BD974061
3D89F320
3D660DBE
3C9F5ADD
BD4A8179
3C69B9B0
3D3EFC17
3D03C552
BD9DA8C4
BD920599
BE341820
BDC7E6CB
BC4EA3E2
3C83C64C
BCE0ED0E
BDCF8EC9
BDC76DB6
3D847F8F
3E3F8759
BE5ED13F
3D16EF3F
BE4D4022
BD60862D
BC1CE70B
3D60CB4A
3CD4BC5B
BE080AA7
3D8B2124
3C4CA0C0
BD338869
3DF5D14D
BCE51203
3E2BBB30
3DB9A927
BC811D21
3C957B31
BD631DEA
BD746729
3AB109BC
3E0C2EEF
3D5D8D81
3D72D774
BCA66104
3E235B17
BDB041D0
BE054B17
BDBBE29A
BB0B9586
3D7207E7
3E5320F2
BCDB8921
BC3EC388
BDC2995E
BC349B8E
BD60ED39
3D79A2B5
BD7784F1
3D6A697C
BD542684
3D7BCD3B
3CFE922D
3DC74FD8
BD96D207
3C8F6870
3E1B9E75
BDA8AE7F
3B8F30CC
BDBBC7F6
BDFCF7AD
BD0188EA
3DC64CE9
BCA595B4
3C838838
BD9ED9F9
3CE808E4
BDB1B365
BD261C32
3B675C81
3D9F96D4
BD8D52A8
3D24960A
BDC89CC2
3D020892
BB26FCC2
BD4E7421
3D6AC1DB
BD8B0BF9
3D003EBA
BD0382A8
3A948D00
BDCACFA4
3D415A80
BB845B87
BDB5E994
3E097A53
BD5F2FD2
BD26C1FD
BCD49728
3E58FB07
BD6624D8
3CBE1E03
BDAF7CB8
3CECE730
BBBD5005
3D534E36
BBCAD0EB
BDC7B58B
3D538277
BD9F99CF
BDA21616
3E547711
3CD8D8BE
3D9D0597
3CFC9DF8
3D0A9EEC
3BBBEC3D
3DABF824
3DBA5EE7
3D21C094
3D280028
BD9B864A
3DA5E78E
3C8648D4
3CCE9A66
BDAC11A1
BE1F6E6B
BDAF0E93
3DBED018
BDAB693E
3DD9804E
3DD15600
3D68662A
BD90BE90
BD470A8E
BE38139E
3D034592
BDE88EFB
3D7A5C04
BD13BC85
3C70123F
3C2A17FE
3BD0BEAE
3CDC6CB4
3C28907E
3E1129F8
BCE384B9
BDB51580
BBA4BCF8
BD56D688
3D24BD0B
3E1A1B39
3D757D19
BD9F7A28
BE130024
3C8AC004
BD410B29
3CBFCCBF
BCBA01BC
BCEE194D
BDA2C1AC
3D3312FC
3CC54265
BBC4628D
3D58758C
BCB30A43
3C9635D5
3C7844DC
3DA6C583
BDB9C4F7
3DACE4A9
BE1291D2
BAF51B11
BC9F51C5
BCB963B8
3C860883
BD8C5D35
BDCB2125
3D803D09
3E390E65
BD46A4FF
3CA975D6
BCC7955F
BCB0C816
BD86C316
BD0EB3B0
3DBA2136
BA440B84
3D9B0C40
3BFA7C3D
3C70A7AB
3DD83E06
3DD59DB8
3BA67BB1
3DAB6BC0
BADB8EF1
3D85A251
BD926AF8
BD547235
3D1935DA
BCA0A1BA
3D6E5788
3DB25A6D
BD85639D
3E2C5C5A
BD5D154F
BD914931
BCBEA2F8
3B38AF4D
BBD043DE
3DD6B525
BD15F65F
3D2D604A
3C61CF61
BD391FDD
BE004400
3C2705A3
BBF68B0E
3D1133BF
3DEAB253
BD69C07D
3CF8C214
3D6611AE
BB3E91D4
BDC2ECAF
3DE25679
3D92F164
3D896650
BDC7AEB0
BD8DA7C0
3C27A810
3D199D65
BD82ED58
BCBA81DA
3CBD9C43
3C336308
BD7841E7
3D27D37E
3DADD602
BD236C46
BD9EB1C4
BDC4F88E
3D9490F4
3C91738C
3BE64D83
3CFAE9E9
3DA9A5E4
3BB037EE
BCD2FF98
3D966C71
3C2261F0
BB4DFCA0
BD4FB4C3
3BC5F067
BD959B63
BD27711F
BDC24512
3D4FBE05
BDB92604
3E5460C2
BCAFF7AC
BDC3852B
BD0DA23E
3DBB3958
BA698762
BD83C8E7
3C8162C1
BD95D7D0
BD309FB1
BD87276B
BC9620B1
3C7B80BE
3DB481C5
BCEC5005
BCAF7643
BDCFD972
3D415CF7
BDC79EEC
BCC3082A
3CD5E1B3
3CDFA435
3D97DEAB
3E19C6DA
3C3B5D88
3DB82D1A
BD305DB7
BCFEC3D8
3BD17980
BAC254C7
3CAF6492
3DEB994C
3CDC83E7
BBF2EB40
3D2921B1
BD0FDEFB
BD42988C
3D19D21E
BDC98B07
3C837450
3DB848CD
3DB10575
3C257DAC
3CD2AC88
BCCD95A8
BCA1D659
3DA30D25
BD2EEC8F
BC33175E
BDC6676B
BDFF967B
3DBF38BD
3D09B28A
BC93DBFB
BD817920
3D6029E0
3CA47BF0
BD76DF9E
3D85B93E
BD87EA4C
3A96E4B6
BC268A90
BD8BDF45
BBAC353A
3D7D7A6C
BCB858D7
3D166020
39E36D2E
3BA3512B
3D159292
3D3B66E4
3DC045D7
BDA1FF34
3D374F58
BD696033
BDC21C37
BCFAA70B
BD1D2FF1
BDCFBB00
BD72FAA8
3DAA4D62
BDAD1E5B
3D9E2FA6
BC84F575
BDA2A43F
3D1D0E01
3D7AAFAE
3D32377A
BC5C1CA2
3D8D90FE
BD8A65F3
BC0332B8
3E0554DC
BC659B76
3BE6D6C8
BCBF8C05
3D5EDE84
3C3B869B
3D295238
BD6F0538
3DA4287B
BCF131B2
BC9B205B
3DA20816
BDA1FCC8
3CE1433C
BDACCB92
BD7C379F
3D6B33B6
3D830FE4
BDC306F9
3E07F7B2
3D15EE77
3D306F06
BBAA9EBE
3BCC6B7C
BCE35FA0
3B2A58D3
BD964F55
BD9B4749
3E250B4D
3CBD1485
3CE9F1A7
3D278051
BD708153
BCB51C54
3E1E5DD0
3D962ADB
BDC4D6DD
3D1E1A4C
3CC0C680
3DC30139
3DBD3943
BD51E09C
BDA220DB
BDB134DA
3D78A72A
BD27873C
3D5CB3CE
BD0CCF1B
BD801CD8
BDA4DD99
3D8867EA
3CC17BA7
3DF4BFF7
BCD9CE67
BC938B16
3D18F4D9
3D8A121A
3D9749E1
3D99FC8E
3D8A58E1
BE1156EC
BD4C844C
3C2EC41E
3B3CEC80
3D02C74C
BB6BABE1
3D600BD1
3D9A6069
3D61EF05
BD3E843D
BDB1B308
BDB4B66A
BD079058
3B2D6BB1
3C3B0C28
3CA951D0
BD061007
BC302F69
BDA5794B
3B85EC89
3DD26FE7
3D6D2F8A
3D8769FB
3E22C373
BDAD656C
3D87E899
3C92AC63
BD678F6C
3DBD8464
3C70F278
BD77093F
3CFF8224
BD90D0BD
BC210670
BDF49F11
BD4672B5
BD689BDB
BC21C9EA
BCA65908
3D2D0459
BDE3AD16
BD9168A8
BD84C053
398239E3
BDEC32D6
BD17B698
BDAFEEAA
BDEBB548
3D8D5F26
3CE2E4F6
BDA7030B
3DE31F01
BDABAE5B
BDC3013C
3E21D53F
BD93BA9E
3D218C83
3CC6BA64
BD64FB1B
BD1EF81E
3DB21412
BD9AD265
3D538D54
BCF1A945
BC730328
BC81C224
3CC9E60C
BD7B1F5C
BCBC51BD
BD68EF28
BCC0C744
3D99BEB2
3DDF59BE
391E448C
399EB0BD
BD5F0AAB
BC294DA8
BCAD1B9C
BD50DB2E
BDC28BD0
BC26EE0B
3DBFBD58
3CAFB86B
BB911E00
3C713C37
BD812ACA
3D952D39
BBEA1BC0
3D4AFA95
3BF03DC2
BA6663B9
BE007412
BD3E1170
BCCA78CD
3D1BD55A
BDB91005
BD8F7889
3CB09EDF
BD943517
BD54B05E
3D8B91AA
3C98A2EC
BD2A2C15
3DB574C1
3BA2470B
3E07B40A
BAC4B85D
3D3417DD
3E121F17
3CE5B241
BD8B6C48
3CC3F3DD
3D772146
3BFE30A9
BCFA1FFC
3D1DA87E
3D213B2A
BDAB1F42
BDBB9F7A
3E044930
BDEBD243
3D168CDE
3D90A48A
BD4DDF7D
BD31C19A
BD278D5F
BE1054A7
3D302D30
3DA57CBD
3D0432D8
BD6FBA3C
3E01C685
3D689861
BDB4DA1D
3E20AABB
3DAA9001
3C2C02EC
BD96EEC0
3D35E63F
BD03DA60
3DAEA926
3D6FADB7
3D19251B
BCE536B6
BD1AEFE7
BD2465A9
BDBCCA30
BDAAF3D2
3D174D91
BC9023E8
BCE7CBA4
BD823744
3DD5F024
BD87BECF
BD7C177E
BD3D8932
BD382E7B
BD625295
BD85E417
BDA17CC2
BDA028CB
3D7E27E5
BD6289AD
3DACBD97
BD9AC603
BDB88F15
BBC2E5AA
3CDE55D4
3DA3B34D
BC437787
BCB402B1
BDD9CDE1
BCB0C2BE
3DE32085
3D4FF3F2
BB3817DC
3BFCDA71
3D8A5ED2
3D639D27
3D8E4B64
3C6298E6
3D656C32
BA91D95E
3DACFEE4
3DD86969
3E2367D2
BC438156
3DAC789C
3D190E6B
3D6B47CE
BC57C27D
BD4ACD0A
3D1FE7EA
3D4D74C1
BDE7AFD6
3CCD942D
3C59AD18
BDAF3260
3B9EFB22
3DAC4489
3D135EB4
BD23483B
BD75C513
3D58BAF5
BD776F35
3D776EBC
BB87FA16
3DA6A956
3D9396DC
BC484CF8
BD0CB0DA
BB58F8EE
BD7529C0
BD8D2431
3DE9584C
3CF57BEE
3D75AA85
BDB3B0C0
BD8C8AC7
3C27AA68
3DD651AF
BDD731DD
3C87948D
3CD1F542
3DA3F167
3D8F830B
3B5BA2D5
BD28E284
3D8B89C2
BBC441E0
BDBF6653
BDB77C85
3DA8CF12
BD13AC9C
3DA21ABF
3DB21597
BD1BDE4B
3A610080
3D14FA60
BBCABDF0
3BE31DF8
3D881373
BDC65734
BD44C9AE
3DB79F1F
BCB6C41E
3BAAF3EA
3D1A596A
3D7097BD
BE092111
3D576547
3D6739C5
3D8C8BB5
3D05232C
3D39BF62
BDA3257B
BC8CF8FE
3CD98E70
3D40CCC6
BDBC90D7
BC0013EC
3D41B854
BC97C875
3D1BB224
3C990A65
3E272C1A
BBF24E96
BD98D39D
3D9E4ED8
3DAC2429
BC26762D
BB75D7E5
BD202C64
3C9FCB3C
BD5241A4
3D2D4F20
3CC9EE1C
BD30B3B6
3DAC65F6
3DDA0559
3CAB127B
3C2072D8
BDCDF12E
BCF46CB3
BD052CF9
BD4EB6A5
BD4DF72D
3D42229A
3C8E2D27
BDC2E5A3
3C6E8F4A
BCA69101
BD9546B4
3D8F79A4
3D80116E
BBF0B385
3D7831C4
BD4B29CC
3C867B41
3C0EDE91
3C98FD1A
BDA30DC5
BB3A56FF
BDCCB7C5
3C9FE354
3DAD3D7F
BD4F50F4
3D917CCC
BA80679F
BD278186
3CEF1574
BD1BD579
3DE09AC0
3C7EBAA2
BDA5590B
BC5BE3C3
BCD560EC
3C1AE1F0
BD78B16C
3DA8DB21
BD2F20E5
3D68250E
BCFB4EF7
3D5D3E86
BD8AAC2E
BD5C9501
BD90DC8B
3BEC47D0
BD69F57B
BCD47E6C
BDC1BA75
BC9C5DEB
3D345937
3D085658
BD152350
BD4F20E9
3D3818DB
BDA4F2B6
3CF0AE35
3D2E76F6
BD66021A
3D518632
3D99FBED
3D899DB3
BD0B9420
3D5D5CBB
BB76C8D0
BD849820
3DE86ADC
BC9A255C
BDAD5221
BD42F70E
BCEDC26C
3D428EF1
3C967BB7
3B676958
BD2D06CA
3D57AA5B
3C5B3EB3
BD314E7E
3CE1F313
3D9B6377
BDA3A488
3D484965
BD9419F5
BD7E5EBB
BD6757EB
BD65593B
3C94FC21
3D043E8F
3DA71ECF
3D636AD3
3D68EE91
3DA99350
3D9AB229
3D3DAE35
3D3256CC
3BE07351
3D50C256
3DFD47BA
3DE20137
BCB372E9
3C284634
BDCB7F07
3DB42963
BDAA1E18
3D90AB85
BD9BA3D7
3DB3BBA9
3B196020
3D65EE6D
BCA9871F
BCFBE89F
BD312222
3DAAA5DB
3D8E03DE
3D9A9B29
BDBAEBC3
BDB37D61
BCFCDC24
3D03E05D
BDA74602
3DA963D5
BD32FB67
3DB0E9F9
BDB9884D
BD32BF1A
BCD51FF4
3DD89C5F
3DCA214B
3B3A1638
3DE94E92
BD71B381
3DD173AF
3D5D8562
BD6BF672
3DDEA4B1
3D88AA1C
BDB0C687
BD85C6A4
BDCA6EB1
3C5F28ED
3CE64763
3D24976B
3D791337
BB9F96F5
BC82A54C
BD902A70
3D372828
3B7DCED2
BD2F502C
BC2EF51C
3D0A75AA
3CFEE111
BCB6D0BF
BCD9A6F2
BD34C8BB
3D4AD0F4
3D939481
BD89AFB1
3D0893C4
BC166418
BDA29F4D
3DA292DD
BC7B899D
BDEB6097
3DA711F4
3C10391A
BDB14D25
BD10E860
3CDA0DAC
3C4B3C3A
3D8D55D5
3D0B83E4
BD7FC75D
3CFBC826
3E5FD70D
3D8DE402
3E07AD92
3DB492A8
3E190812
BC4AEC14
BCB5AB6C
3CB9B72F
3D6731F2
BBEDFF90
BD4BCB38
BD55AA4F
3D778DDB
3D7F573A
BDC8E24E
3C6FD628
3B661A53
3D3F7DB1
BD7C6218
3C4F0438
BC59416B
3D224D4E
3D8668C0
BD3F23C0
BD484576
3DE78E4C
3C4E3AD8
BD1A8FB8
3DEB1184
3D006931
3D7F0403
BDAF7219
BDA8510E
3D2FB431
BDA689EC
3D5DBBE5
BDA96422
3CE4CADE
3D3560DE
BC3E32C7
3C17AF4E
BDBF039E
3D35F737
BC00AFDE
BDC1E4B2
3CFA6F1C
BD6D7643
3DA19447
BD0DF880
3CBA1588
3CF8E934
BCD857D9
BD3DE704
3E0012E0
3D038329
BB46B0D4
BAED0200
3DA7F027
BC1DC230
BDE0003C
3D81EA59
BD790084
3C6F9B52
3CFEDBAC
3E001C10
3CA28818
3D94B0A5
3D9EAE8E
BD92746E
BE08B171
3D494797
3E15E0E2
BCDBFFB5
BDC884C2
BD10B288
3C71AFB6
BD599A25
3D91ABF3
BDB9E75E
BDA9D738
3E332B2B
BD904DE4
3DCC4F26
3C3A31A3
3DB49B6A
3D02758B
BD5EFDF4
BDC67699
BCB61C8C
3D8107B1
BC623C42
3D7D6F75
BD944973
3D497FBA
3B6A0E46
3D5F55E1
BD3368A1
3D9D1C40
3C984645
BDA6E0DF
BD6F05BB
BD66756C
BBAC5611
3D885EED
BE15D7FD
BD917716
3D886258
3D739D2A
3DD4220B
3B72B681
BDA8A90D
3DA090C7
3C0C0442
3E02853A
BBA64083
3C95EB88
B93281E9
3D5C429A
3D1A99AE
3D4386D5
3E1DAB55
3D5F45EA
3DE84FB5
3C2918F0
BCBB7C9D
3DD6DE9B
BC46603E
3CEEB57F
BD1E727A
3D43A64C
BB1F306B
3CEFD037
BD8B2027
3D87E777
3D9280DF
3D933519
BCBC9AC4
3DC54F14
3D4EA12C
BE0CC85D
BC59FC90
3D1BDC7B
BDADFA25
3DA28995
3D28256C
3DADCEC7
BD51F6DB
3DA6D0F6
BD633B10
BDDA0394
3C4C303F
3D99B1DB
BD821508
3D9BF2F7
3D8E79E7
3D6BEADB
BD0FB4FC
BDC4702B
BC68674E
BD625595
3D5F27EF
BDCECD3B
3CD47AF6
BCEFF966
3DD55CE4
3D3FD18D
3D07B15D
BC926308
BD25D2A8
BD2B41FA
3D430171
3CA2D98F
BD333434
3DBE6161
BC68FC44
BDACF9F3
BD364D4B
3D0284A9
BDA3E3AB
3D914083
BD98E625
BD6230F1
BD9F8681
3C92D7B4
BE0C52FD
3D927267
BD905297
BCADE094
BCA36ADC
BDA52C54
3CA388A0
3D686B42
3CE1687D
3DA1E64C
3D1A5E63
BD90A88E
3D9007E0
BC950D89
BDA470EF
BCD94DE6
3D9B7F7E
BD117EBA
3DD78E45
BCA49577
BD1E8F42
BC62100F
3D9CBCF1
3DE8D60B
BCADB92C
3D2238F2
3D279E51
3CDCCC69
3D3E83B6
BBAA5079
BD36006E
BCB9C34F
3CB58340
3DA176C5
3D3042BD
3C190EF2
3D256116
BBF9AFFD
BBBC2F28
BD2A5E44
BCB73D75
3BB0C2D0
BD007EFE
3D669B17
3B5CECD4
BDC4BDC8
BD90378E
BDA4A768
BBFAA9C3
BD08F0D8
BD21A05E
3E211239
BDC24230
BCC9E658
3D6E290F
BDA64555
3D7BB3D5
BDAC6C56
BDB54DA0
3DBCEA40
3D23310D
BDE5FBB4
BD53EAAF
3D0F8B33
BCA9DEE0
3CBD6830
3D0CCAA2
3CEC0789
BD627589
3D8DF957
BD2CBBB2
3D8A88F3
3DBCEC7F
3CA50EF6
BD855304
BC51BB05
BD582434
BCBFFE0C
3D161D1C
BC6AB2F8
BE29F527
BD7EB9AE
3DB2910A
BCDAF508
BD9DEE7E
BCB63C65
BD971802
BD1E3AD2
3D94D129
3D3B0536
3CA9E5DD
BD100799
BD85371D
3B062E3C
3D2E3EAA
BDA73B63
3D49E6EC
3D8B1166
3DC7722F
3D808CC1
BC58926F
3B56CC73
3DD8CF07
3E5CE08B
BD46D0D1
3E43C1EA
3D1001C3
3D85A1DB
3CC8EEBA
3D8F7640
BCEB0FAF
3D4119BF
3D6013FE
3C96C2E8
BD7128ED
BDD347B6
3D040CE6
BC551803
3DB90B1E
3D7B7CFB
3D3E9B93
3CAEF8CC
3D92D891
3D05CC81
BC46DA09
3C8EBD31
3CAB03EE
3D967F7D
3C7D63D2
BB3B5B81
3D9FCF3C
3E3B77D5
BCA4E7C2
BDB5F51E
3D8F07AE
3DA25D38
BDE1CF71
BD3A7300
BC166BBB
3CC03D2C
3E04F0DF
BC95FBD0
3D85BD89
3D1BCD8A
3C80A354
3BCA5080
3C361AF1
3DB36A76
3DA86C69
BD83BBB4
3D0750BB
BD9F81A7
3DF400D2
BD3497E6
3D0FE709
3BEC88E1
3D5C6608
BDA514E7
3DA80D65
3D9E2363
BCC0DCF2
BA170BAD
3D8CC3B1
3CF1749C
3D8557F6
BD61CBAF
3C82E07D
BC0E1988
3C81FCBD
BD9D3991
3DB75697
BE390392
3C1238FE
3DB0E42B
BDA202C8
BA968CF9
BBDD52B0
BAB7732E
3E0CB0EA
3D976E1B
3E12B7F6
BB2B4F93
BB818BAB
3E017F84
3AC31649
3D687047
3D5E0452
BCD85C19
3C43F029
3D7157CF
BD89C36B
BC1F9C8C
3D35DD3E
BD042273
BE09512E
BD2D2CE8
3D9FCDEB
BD626A29
3C5CE5CD
3E21FFA9
3D538822
3D8595BB
BDC89997
3D540DB2
BDE48BBB
3C602BFF
BE131561
3BE1ED37
3D1D9DF0
3DA07D4B
BD0A885C
3D02A72F
BD6B7AA3
3DB5CC1D
3D814377
3D9091BC
BD34C726
3B9AB0C8
BDD71BF7
BD98C36B
3DE8BED3
BD649A95
3DA24893
BCF58B4B
BD56DB8C
BD830CF7
BD6E6DCA
3C26A314
BD3C216C
BD88F1BA
BD2F4CAD
BD1FEF51
3DEEEE6C
BD2F3C1D
3B2117E8
3DAA2D89
BD1BFE77
3D84B835
BD5F6630
BBCBE320
BE3ADF81
3DAA08FE
BDC3FFCD
BCABF1CC
BDAD08AB
BCC8BD92
3D6DC4E8
BCB9B9A4
BAA322F1
BCEF59AC
BDC95C86
BE30C5DD
3D4B9B1D
3D94750A
BB9E8E10
3D7D2255
BDF65706
3DB18580
3B9B65CB
3D0EF98E
3DA5BC53
3D6CC5EB
3D439274
3E35A789
3D9CA52C
3D2A56C4
3D9BF7CD
3D8B1B73
3E23257F
3D7DAF67
3DA880EB
3D882674
3D7F9DAE
BCB06823
BCDC7C70
BD2C1960
BD74C6CF
3C484D8C
3C9D7733
3CD70385
BD4E96E1
BDB81261
3D43DC1C
3D95FDCE
BDF5A1B2
3DEB89BA
BE367B1B
3B6204C5
3D16CE09
BB33DB6C
BD9316D6
3D35C9B8
BCD1B96B
BDA16491
3DBC470B
3D97E05E
BCB85C36
BD8A731E
BDD49352
3DC67A6A
3DCE510B
BDEA1B21
BB61C2B7
BCF4B0AA
3D250FB2
BC8C3BCC
3BC15E40
3AAC8F1A
3D95F7B9
BB78EB60
BC8F0FA9
3D43F7CB
3E06DFF9
BDB3B195
3DAF5724
BC9480CC
BBA90487
BDB19D13
BD84E98C
BCD86B0C
BE54C10B
3DA0C9E8
BDC52BDC
3D55897E
3D2C5A31
3C37EC52
3D4862C0
3D34B402
3CA6CEA4
BAF6F419
3DAA07A6
BD844072
3C302E37
3DA61987
BC598490
3D5F0F6D
BD881B2E
BBFBFA2A
3CE038E5
BD1E34C2
3E00631E
3DBB5913
3D0AF3E7
3E4B8E94
BD50042C
3E229361
BDAF3BCA
BDBF9B1D
3D9CE6A1
BD851FC7
3D339A4F
3C8FD33A
BD5DEF9E
3D1C3FEF
3D0520B8
BDAACFA6
3D2E4DF6
3C109A3E
3CFCE54E
3D5BD463
BE072622
3C34D1E0
BD657D60
BD3E0790
BD06CA10
BD58F3A6
BC3C8644
3CEDD480
3DCD8D27
BDBAD2C9
BCBE8BC5
3D9F1A99
BD86DC8F
3D9B9981
3D94699C
3DB3125F
BCC8266B
3DAF1D55
BE07A824
3D9ABBA4
3DCB1BDD
BDAC14E8
3BBBF7B3
BD2C1122
3D1C3EFE
BD4EF347
3D7795C3
3AF9275D
3D87DEDF
BD9D2A8E
BD0452C2
BD8CB710
3DD8E54D
3D1DBC35
3CB24652
BD71338F
3D84F0E6
3D87A2B9
BC8FF4E7
BD8C08EA
BDB81F2A
BD8DEF04
BD85ED3F
3D66F676
BDE961BB
3C53EC76
3D7113E9
3D10AC1E
3E34ABE1
BD963CDC
3BEFC6F0
BDB36CF0
BC938903
3B033652
BDAF57EE
BC3DDB6F
BE108A0D
3DA620F8
BCE41C97
3D84C2E3
3DAEC2A4
3C2E458C
3DA1895D
3DB20A4D
BBB9BFCD
3E034733
BD8DE474
BDA21543
3DE5EA4E
BDB64643
BCBCEECD
3DB52D1D
BD0E8D0D
3D923DC5
BDFDD588
BD263F15
BD93631A
3C338347
3DADC5A2
3E3CB401
BC59AE7A
BDB5D437
3DA05230
BDD45A0D
BD90C329
BD26DFEF
BC85372D
3C579CF4
3DBBEA79
3CFF3917
BDAA9E4C
3D082477
BDCB3804
BAC8DB50
3CB911E3
3D65A4B1
BB3ED85F
3DAF6F48
BDBDD91C
3DD44A7A
3D9B17BC
BCF4C4D3
3D0EDF41
BDAAC48F
3D10604E
3D420A66
BD0AA0B8
BD80AF82
3BE68283
BCC19B48
3D94E34A
3BD26D54
3DC0DC85
BCA87AEA
3D85C35A
3D762470
BD41574F
BD039598
BD257DF1
3D975B87
BE30A7B9
BDB501AD
BCC5BFDB
3D866CC7
3D887D14
3D9F5703
BD0741EC
BD193D0B
3E245D8A
BD8BE742
3DA24920
BDD06F0D
BDC731B8
BD97A54B
3D104F1E
BCBC5537
3C119A6E
BC853B56
3DCD3DC0
3D4D323D
3C13F550
3D376A46
BC7047A9
3E4F1C9A
3D4FC527
3E1E2956
BC5FF8E8
BCA6A85C
3DE11D43
BD859C57
3BEE8613
3D3D8C0D
BCAF8910
3E0A1893
BA2852D2
3C84D85F
3B6CCC20
BCFA7EE1
BBED9956
3C31D42B
BCC8AB5F
3D8A6AFD
3D891238
BB885E6C
BD84EA3D
BBDFFBEC
3B4DA34C
3D85AABA
3E11D0D3
3C8B4443
3CBB3590
BC032328
BCDA9A24
BDC64D1A
3D84C368
BCF23751
3D7C08D4
BD1E1DE4
BA5707DF
BDA0A747
3DE90A1A
BDEDA747
3D8CA793
BE28B7DA
BCE39E54
3DAB809F
3D399134
3D66A277
3D2395BA
BCD90000
BD91CE94
3D9F09BF
3DDD0F21
BD799CC5
BDBBA093
3D0F0CA6
3D43A1DC
3CF2E1FC
3D4FCFBD
3D19CF22
BE2F58E7
3D104732
3D7FA3C9
3D23C88E
3D44A7FE
BD59656D
3D6A32A2
3D960881
3E2F5FBD
BDCA193B
3D4D6E6A
BE05F522
3D6AF2DF
3C6862CD
BD853E42
3CD66E45
BDD2B71D
BC2A3907
3E0BAE99
BD94AD46
3D0875DA
3D749610
3DB8412C
3E0FFCB0
3CB6C97C
3D0E55FF
BDAFE1DE
3D9D9F1A
3D733EF9
3DE0F58A
BC0B3AE7
3DC8F734
3C8F6CDC
BC198AF0
BE0A2147
BD33F25D
3D62C70A
3D8A4760
BDA87FA2
3DB2C98A
BBCA012E
3D9A6CFD
3D638E4E
BD715083
BE25B77E
3D8F78CD
BDE04BC9
3DEA9D06
3D91FA79
3D4C0E31
3D18BD01
3DADD52E
BDB75C8D
BBD95D15
BC990BC1
3D5B43C3
BDB1CB97
3C623598
BC0B5DFB
3D10D029
3DF30A94
3C60544D
3C4B0AF5
BD7D1A7D
BD6C0D51
BDB104C3
3DB0A387
3CD8E17D
BCA5F3F2
3D48F382
3D293225
BCCFC84E
3D3ACE6A
BD4CA9E6
3CE08B7D
3D245FE1
3D0115A7
BC409950
3D642931
BD8D53F0
BEAD71F7
3D2716A3
3D4192A6
3D1127A2
3E0484D1
BD8B13BE
3A144F53
3D747FBA
3D2610E6
BDC5082D
BDAFC482
BDD620DD
3C4F8CC0
BCC91D8C
BDC0C528
3CDB3C62
BDF3DAC5
BDC515D0
3D18224D
BD1C55C0
3E4DAEEB
3CFC22B1
3D619774
3D40430A
BB95564E
3DA62A59
BCA3DBF1
BDAF8A58
3D6F9C8C
3D25B1B2
3C4E9C28
3C632301
3BFF42B0
3D633848
BE15EB31
BDEE79B7
3DBDD46F
BD2D7F95
3BBE3737
3DE46312
BC37F5E9
3DA78411
BC7AA9ED
BB1E4CAB
BDA87AC5
BB1A4D1F
BD2FFB8E
3D3BCD70
3DAEBDFE
3CC4693F
BD338460
BCA636B7
BCD63470
3D9BFEBB
3DEEAF07
BD422EC1
BD60979C
3D8E94D6
BC241719
3D5F05EC
3CA749C0
3D845852
BC95DD0D
BC8333F8
BD29F8B3
3D3ACA8A
3DA96D6B
3D66FA2A
BD077654
3BC0A910
BD4BFA96
3D00AF54
3DF646D5
BD6F03F6
BDA45D70
3CBFEF21
BBEBD20B
BD80B518
3D1BE834
BD09FCBB
BE8D48C5
3DA4122A
BDF40151
BD9AC019
3DB19D3B
3D6F4A86
BDBA481D
3D218CCA
3DC0CE2E
BDF50012
BD8C868D
BCF6B76D
BD83222A
BE1E424C
BDC13C5B
3B9287A2
BDF4C0C2
3D54C4F6
3E3D0F05
BDA9B620
3DBE0EFE
BC3B524F
3DC2F356
3DAF0BA7
3C3456B7
BB536C95
BD38741C
BD425772
3DF754CC
BD43B7D2
BB8F6616
3DE61A68
3CD6F0C0
3D66D868
3CBFDBE9
BDAE333B
3C2E7160
BDAEB993
3CED11AD
3E41C284
BE07699F
BC34BF88
BD5C94A7
BCF95464
BE04BB09
3B3CEBB5
BE23EF7E
BD102A18
3E3C87E5
BD51B734
3D1C8E14
3D520991
3D925132
BD35282C
3D96B142
BDC656AA
BD586435
3D9DBA23
BB43B2C0
3D0F3D06
3D604CFA
3CACDB74
BC12E286
BD24608D
BD2B9A21
BC542080
3BFC10B5
BD1213DB
3D1DC005
BCC48780
BD5E294D
3BDA40ED
3E0BC841
BD0E6A7D
3D8C0265
3C4A4E4B
3D37B933
BD3846D6
3DB847D4
3DA9D851
BE53C14C
BD0877C5
3CF4536F
3CD48DE0
3D6B60A4
3B9A12BC
3D21E173
BD2978C9
3DB41D40
BE1F86C6
3D62133E
BDF75040
BDA4176F
BBD4BB54
3DC0C6CB
3D7843EF
3B6FA450
3DAA6BBE
3E4A089C
3D708D33
BCBDC352
3DDB5201
3C526A19
3E7F36BC
BD863A9C
3E293729
3CD4322B
BD9FCE70
3D089734
BDE8A877
3C315CAD
3E2526F0
3CB0A9D4
3ACB2FA7
3CC0C9A1
3DD96144
BD85F03C
BB84033C
BC497C09
3D5986A7
BD7B1BDE
BD76005B
3CE4C1E1
BC91571D
BC89955D
3D9E1866
BDFBE551
BCCF8737
3E117A51
3CF32019
BD30C41E
3B7F6FEC
BCA0E36F
3C01A671
3DB3E4BB
3DB653B0
BAAEA609
3C130D1D
BD823823
3DFB3D9C
BD87DA33
BD9BAC46
3D739B8D
BDF3C7D2
BD241825
3D12DC52
3D28A3E4
BDA06D36
3DA3AE60
BD01A37E
BD843C4B
BD14FB11
3E2EDF41
BC48892F
BD05FA90
3D34688D
BDC9D03E
3DC383F7
BD1F3082
3D873B3F
BE213D4F
BE027D25
BD8C3236
BCED4B28
BCCD8943
BD322532
BC46260C
3D9256C9
3E25641D
BDB53914
3C0F53E2
BE0E40A7
BDC071FB
3C9D4CBF
3DA5C967
3D45148E
BCAD774D
3DB12CA5
3E66610A
3DA62162
3D032D6B
3D7C4033
BD1F2978
3E7C90CA
BD770A89
3D7A2F73
3DA1BEA9
3D9071BE
3E87D798
BE649CF0
BD4C73A0
3E28B78C
3C3B5768
BDA69E46
3DCEBE46
3E16E80D
BCA360A0
BE52C5D7
3D9E9AF5
3DB80BF5
BE3E5755
3D602416
BDA804C4
BC8F5DA1
3D8CA608
3E063DBF
BE68213A
BE6448EF
3E98C486
3D791625
BCF6791F
3CF73811
BD16A3AF
BD420FEE
3DD23243
BD9CE6AD
BD8F603E
3DAF9300
BD95E09B
3D11B9D9
BE1EE917
BD52A204
3AC9A6D2
BDDD5778
3DAF5F2D
BD7F49E7
BD974822
3D14B93A
3D5827A5
3D666C02
3D16A599
3CC25A08
3D856238
BDA20BA2
3D81D8D2
BDAE7CFA
BD483C30
3CD65610
3D823EE0
BD924285
BE50BE97
BE2C2DC0
BC585FF0
BD80B5DA
BDC51DAA
BC8F6AAF
3CF6D1E1
3AD3B8C0
3E1DDD2D
BE0C52EB
BDAF81CA
3D7CAE2B
BC7903BE
BDBFC067
BDBB834A
BCAEE32E
BB23AE93
BD5D7A91
3E8B9B90
3D3D719E
3DD3D97D
3DAFD28B
BDC8775C
3E2B259E
3C7FFDE8
BD9960A5
BDC21EAD
3D5F1F11
3E1CC454
BE4F6301
3D4F12A6
3E040F92
BD677AF7
BDE118BD
3E744C0C
3DBF8900
3D1C8522
BDCA62B8
3C8B181C
BD6CEDD5
BE029A06
BDAE2962
3DA924B0
3D4D3D4F
3D055803
3DB55214
BD863CC6
BDB35250
3E3F66D2
3D56742A
BD2567E0
BCFD5284
BD10EEB0
BBC780BE
3E52D671
BDBC9B9E
BDAA1C06
3D77A78B
3D0120E9
BDFF2AE7
BDFF0052
BCA7C199
BCFD3E5A
BE29B1BC
3CE3F698
3CA000BC
3DB6E913
BD89F03D
BC0DC48F
BBFF6B70
BD52BA8B
3D1D9B3D
3D9F7B3B
BDA19A87
3D88AAF2
BDA739EC
3D1925D6
BD6DA5EC
BD6A9004
3D594ED2
BE0CC8FC
BE420E97
3E6BA19C
BD992ABE
BE7E2A00
BD18581F
3D1A7621
3CAB19DC
3D3CBBA6
BE14296C
3D54C25B
3E5EEA7D
BD67FAC3
3D0EC384
BD89480A
BD968FC3
BDFAE55D
BDB28BA7
3E7712E5
BDB4FF9C
BDC1794E
3E224F95
BDFAAFB1
3E591AB1
BDA42D44
BDC06219
BD58CDB8
3CD581EF
3E5B8975
BEB2686E
3C658CB5
3E1FFE71
3D7286EE
BE39FD3C
3E51DC80
3E449E6B
BD9F795C
BE879034
3C8046A8
3DD4B717
BDECFF24
BCA3D248
BC111E5B
3DB34967
3E7B9BF0
3E137A99
BE1742CA
BDD2A225
3E4BF2E2
BDC65C14
BDB2F794
3DAAC5DB
BCE0DD3C
3DA55E33
3DEFB466
BD33A416
BE14302A
BDB02BF2
3DA83100
BDEBA436
BE50463C
BD05184A
BCFF0F29
BD06930F
3B3E4600
BD953DC8
3B4EBE87
3D271FF1
3C18891D
3D4244CE
3C8816DF
BC067576
3DAE679A
BDA8934B
BD03EBB5
3D18FCBF
3C88A102
BD3F50AD
BC1F10E0
BD8F0477
BD9E0062
BE4A374C
3E0D4BB0
BCB43F78
BE463DFC
B8ED6BC8
3D2E9E33
3DAA55C3
BD0ABA48
BDFF087C
3D86EB22
3E4E73BB
3D8A1ECD
3DC0D5AD
BDB1CF1E
3D9EF12A
BE197A05
BD9540B3
3E461A29
3D9B9731
BDBFCE2C
3DA7575A
BE359402
3D200EC2
3CCBAFEB
BD5DA79A
BC787662
BCFDC862
3E240C9B
BE30B72A
3BEE1935
3DA94C25
3CD644D8
BBF0D68E
3D910BCC
3E4E763F
3C874A54
BDE13D8D
3D924959
3D04683E
BB3B44BB
BDB48D70
3C8BA76F
3C2AB870
3DA89381
3DCDC0A0
BD2C6ABE
BDF4439F
3DBF1394
3D6EDA06
3D06D54B
3AFB37D0
BD919A1D
BDAF8358
3DED9731
3D0C6F59
BD8594FE
3D451A4B
3D248191
BCFB22D1
BE88BAB0
BC2A4A75
BC8E925C
3EEED22B
3C2C1AC8
BD2B2347
BB1EE5B2
BD93735C
3CAC2FB5
BDBE51AF
BBCCD169
BCE7CA90
3D85B581
3D9F7BBE
3DA1E76D
BDBDBDF8
3D8559FD
BD2121F7
3C0D5468
3D32E9FA
BD8232A9
BE7F7BBF
3E96593F
3C80E204
BE19B43C
BDAC3A04
3D0AA111
3DBA2319
3C0C37E0
BAD3AF0B
BD2927A4
BE8A1311
BCD84871
BCB9CC20
BD0C2E68
BDA2A90B
BE369DEA
3DB4C2FE
3DB20279
3DB89421
BD0A862B
3D9FE1C6
BE65F568
3E428B02
BD1A82AE
BC72C6C3
BD68D118
BD181065
3DF8DDB1
BE083C48
BBDCE198
3E294E7A
BD59951E
3C1BB7DF
3DB2BD63
3D722331
BD10CF39
BE8910AB
B99F8E43
3DCA56C0
BE4526F7
BD8B9C40
3D478256
3DC95F3B
3C97C8ED
3E3A36C8
BDE2511F
BD9F116C
3E81BDE8
BC419E31
3D55ED8C
3D4EF874
3BED01F0
3D7B6FB4
3E87FBE3
BDB699BC
BD7C7F18
3A1CA2EC
3DDCD0C5
BDADE06B
BE46A0FA
BE3D9C9E
BD5BE254
3EDA2473
BD769417
BD4A7F26
3D47D8F5
BD735354
3CC8883D
3D8FB15D
3D0325D8
3D338707
3E1451EE
3DB8E929
3BA7B527
BD993FF1
BD2D6F2A
3DB991C7
3CA5D919
3CFB60AC
3D18A279
BE39B491
3E22181B
3BCCDDF0
BE5A0652
3CA75BD8
3D88667C
3BBE0920
3DCD22EF
3C31024C
3C83CEB0
BE8527D3
BD416AF5
BD88A9D5
BCA1D8F0
3DA66A05
BE298712
BD98A65B
3E432C16
3D1C0B1B
3DA25A70
3E176C58
BD93467A
3E343C35
BDC3574B
3D846739
BD88B922
3D8A8E17
3D0C8B11
BC2EDC04
3CFE19B0
3DB93093
BCB9F8DC
3D665797
BCD1D625
BCE2928D
3D96965D
BDE609F3
BD96A52D
3D4A64E5
BD85DBD3
3B735500
BC832D64
3CE17BB9
BC78D91F
3E173795
BE4403A4
BD920964
3E392318
BD639098
BB35892E
3C670BDF
B9C98073
3C98FDD8
3E31FC25
BDA170A5
BC09EF94
3D9FB7E7
BD6B4004
BD208347
3D05E694
BDB232B3
BD3735BC
3E2E31F4
3DA40CBD
BDA80DC6
BBBD2ECB
BB99C0CE
BDC994A7
3C7594C0
BD647D36
3CB124BA
3CFE5D1F
BCEAAF1C
3BA87BB1
BC0DB3CF
3D13F357
BD813CDE
BD6CEEEA
BDA41CDE
BDBED7DF
BD1B2F2E
3E05BB73
BB550400
BD151800
3D813396
BD439013
BD9E79D5
3E07E6ED
BE07B5E7
BD8F7ACC
BE447A4A
3C77FEF0
BDE014D1
3CC142E0
BDADDE6D
BE2A3C6E
3D8F20BC
3DBA807A
3D5176B3
3E16C534
3E1E6906
BC674AAA
3D84E6E4
BD78122A
3D2DA7E9
BDCE7605
3DA3E9A8
BB8D75FD
3A07581F
BDB0D7DD
3E01F83B
BD704F18
BD1F2C09
3D1076DF
BDA6D9F8
BDABCA14
3CC3B95A
3C8575C6
3DC8614D
BDF40361
BDBEC2BD
BDAF787F
3CC1657E
3CC24575
BCD40523
BD50379B
3D8D9BFE
3D92F764
3D473E52
BD1EA8B1
3BC93240
3CB9E145
BDB67D01
3D72AF9F
BBB63867
BDE5F651
3D0598C6
BD7F5735
BCE389C0
3DC79BB2
BD7B15B6
BD8A75A6
3E164D9A
BC448148
BDABB569
BDBAA576
BD305732
3CEE5663
BC550E90
3D8FBE62
3D90FE84
3CF617F7
3C5873FF
BB4B2A60
3BD60224
BCD00ECA
3CE80410
BD62799A
3C2196D0
3C8FB51C
BD587D2E
3DEEA5F7
BC800E30
BDE27BE5
3DAE6E28
BD2C426C
BA1C1100
3D16A8D5
BE179D98
3D9E1AEE
BDBEAC85
BDA3A966
3C6E7299
3D8CA879
BD5DE227
BDC39B2A
3D655A91
BB05BFDA
BDA75D25
3DBE6258
3E0F103E
3E217123
3DBEE96A
BC92EBE7
BB268E91
3C110BD8
3DA9C249
3D5F59A6
3CD5C551
3DAB9BD1
BC0B4C39
3D7A04DA
3D20B905
BDC73837
BDFEA89C
3D273536
3DCD4337
3DB1F261
3E480106
BCE8B4A5
3D8C361D
BBAF3B50
BD33B0E0
BDA090B6
3D9B348A
BC3D0C5E
BCEE3B17
3C51C961
3D5B3E33
3D951474
3D6A9D4E
3DA2DA30
3D78DB40
3DDE60D4
3D331810
BCFFF1F9
BD943EA2
BC049523
3D8E1232
3E0DFDBF
3CB21A47
3D7594FA
BDC8BEA8
BD93DB73
BBF62590
BD6AB578
3CCC3C17
3CA8D031
BC141B30
3C2CBC5F
BB0EE6A9
3D3028EC
3DB6FC95
BBDFECF4
BCF186B5
3D2EEB13
3D535F7E
BC80D4CD
BD9FD08C
3C801498
3D2E397F
3E2101C6
3D9B7511
3E1499B0
3DAD3363
3D8799AD
3C1F2B18
3E259339
BE5BF51E
3D25C7E6
BE0BB50E
BDB6015E
3CA8696B
3DBE7BB7
3C9FDB72
3CFE511B
BC854587
3D81C377
3D3EA0DE
3E56F65F
3E26E05C
3D5FA9D2
3D0BB624
BE301FE7
BD211AC5
BDA3A78C
3D94D2B2
BCC738F4
3E665CF0
BCA303B2
BCBA796B
BD4F8A2B
3D93D1F0
BE3FFB97
BE47209C
3CA3C988
3CFDA174
3DB630A5
3CBB43B4
3CE0C107
3D76BB16
BD704B27
BDA325DC
BE2390CD
BC7F9DD3
BCE96D75
3E337BF6
3B49A100
3D8CC85A
BD9F2C91
BC562956
BDA5CF18
BDB12BC9
3B066209
BD492668
3B651E1D
BD435465
BDC2FEB7
BD595541
3E214A92
3D9D9800
BD500978
BE59B01C
BD6FE065
BD18CF22
BD8365FB
3DB64D11
BDBB6DDE
BCD17518
3CF53C3F
BD8F3165
3D0DE5BC
3C5D1E05
BC68D5F4
3D9E5DC3
3C85FF04
BDB431A3
3DA1A900
3BDC9180
BDB79521
3E2074BB
3D3D2BAC
3DB09AD3
3E03E122
3C7D0050
3CDAE92D
3D90755B
3CD1584E
BDCA58F6
3D0EA6B4
BDD0EC7C
3D826F54
BC8F1421
BD99FF0E
3DB03999
3C79A844
BDC4704C
BE2D5835
BD646D44
3D77FE21
3E0BF506
3E3035E4
BCCCD205
BE0ECE01
3CB40D42
BDA59813
BD798D8A
BCD24B4D
3E1A4F3B
3D3F540E
BD3E37A5
3DB17603
3E55CAA1
BD974602
BE07A599
BB071D60
3D79D260
3A2B256B
3DF60F67
3D5A1872
3D428F0A
3D9E324D
3C450F2D
BB8F26E2
3D950AA8
3DDE28FF
3DFB14FC
BD038E73
3BF70C67
3DAAB450
BB198D3B
3C7AE19F
BC864ACA
BC56A6AD
3CBD7634
3D35769C
BD0AB734
BE25E7E6
BD30066A
3D4B891E
BCCD23DF
BD429EE3
BDA7E755
3D4136A6
BBDBA3F0
3C5B4494
3D66F308
BC8DF107
3DC3CEE9
3DB0F8C5
3C89DC13
BD707B38
BD8B5043
3D646F43
3C40F861
3CB72735
3D01F956
3C35CB28
BD45A972
BDB38F66
3D47E93C
3D962198
3DAD3C9D
3E51AA94
BD62FBEA
BDAC9F5E
BD176797
3E0F4510
BDF2DA59
BD0D8C14
3D2BF5D9
3D69F609
BDFF97AA
3DAFDABF
BD8F45F8
3D6C34EC
BD159F7D
BE25310E
3C1EA58A
3E1EE7AB
BC1C2D86
3DF0ED9A
BD9128E9
BC5555D6
3E01F29B
BD2537FA
BD87C3A5
BDF7CB46
3D5F1794
3CD6E418
3D05D0DA
BC749568
3DD1DF42
BDF45609
BE4AD6A7
3D829057
3DF76E63
3D9A3A75
BACAD9A4
3C0E3F96
3D90FEE5
3B49AE56
3D5B0B03
BDAEFCE7
BD53F213
3CDEC86E
3E1033EB
BDB9A188
BDC43078
3D4E95F0
BD60A392
3D54C99A
3B147F30
BC361363
BD753DBC
3D994D84
3C1CA467
3D08C316
BD52E269
3E0DA215
3E02230F
3C96F89C
BD19183A
BD8E9D8C
3BDD38B0
3C22A38B
BB2454CD
3D3A4B7E
BDA6F460
3CB9071A
3D911B3A
3C92FA87
3D87836D
BD0EFAA6
3C6CC899
3CF2EEE6
3DB721CF
BDAB644A
BCE7039C
3B7148C8
3E153734
BD31A902
3DAE824F
3DA7F271
BCCEE0B8
BD23FEA3
3A94F680
3D51707E
3C2F060B
BD19F787
3D00F16B
BD58ED8E
BD42B073
BBE109B0
BD576BA6
BCB1982F
3DA08504
BD3D36CE
3D35DF83
3E113EE3
BCC84D8C
3DBE713C
BD863CEB
BDEA6B9C
3D0182A4
3CD6D4E6
3C82D7D2
3BDD2F18
3C7CC2E4
BD8A867B
BC252133
3C3C6720
3D9B246F
BCA528E1
BD5B95F5
BD96D2FB
3D150894
3D8D9D78
BCEA563E
3DC46B7F
BDAEFF1E
3CF69572
3D972C65
BDD75109
3C665C18
BD1C492D
BCE8BEAD
BD20436E
3BF3789D
3D23BB73
BD4711F1
BDB92C49
3C5F500E
3DDC601E
BD5E1D54
BBA84CE6
BD27317F
3D4C750F
3AEB1B96
3DB33C1E
3BEEC186
BD7D9F98
BDE98AA0
38EA3800
BDB9BDB8
3DAD22B4
3DB0E67A
BDB3B62B
3DBF11BD
3D2D6417
BD7F9858
BD05AF0A
3CCDAB6D
BDCFC79C
BD2A764C
BDB2C306
BD2A88DF
BD50508D
BD04FE3E
BDD23A54
3DAAE246
3DA66AA0
3CA07204
3C130ED3
BDB887FB
BD6C26C6
BD942F15
BC80C317
3C800EE2
BD3D5E27
3CDE1B51
BD370FDD
BDF7A1A9
BC857D44
BC10845F
BDC5C154
BDA0D3DF
BDE5A831
3CF70D8E
3D10ED52
3D9954EC
3D8AECF0
3CFEB09B
3D2D0051
BCB19998
3D8E8B8D
3D26B92C
BD2B46FF
3DFC160B
BD37FF98
3BFFE1AD
3C34CD30
3E0A4209
BDE0455C
BD7D8722
3B9D3340
BD8D3355
BD6F5437
BC4DE498
BCBB8085
BD13ED05
BD8D844D
BD96F3E2
BD225976
BD491C76
BD39EA9E
3D4711F4
BD9FC759
3DA06D16
3C9A2905
BD51A7F2
3D011E7C
BD2CC758
BD6C654A
BD1FE501
3DD94835
3DA4A7A7
BC2F5A1F
3D9B3A61
3E20A054
BD84B595
BDAC9169
BD91A534
BD9ADB20
BC4725B8
3D1D59A4
BD119655
3D494D71
BC79F2F0
3D9C8302
3D90E703
3DC49E5B
3BCFC411
BD3FEED1
3CA65068
3DB3FC0D
39A17500
3DA00F51
BD426A82
BD9FFB65
3DAB9893
BD85CB1A
BDAB52F0
3DB375E0
3DAE13A7
BDA86E48
3D4322F2
BC1F4658
BD4E3CF0
BDA63788
3DC460A9
3C14BF49
3D7DE552
3DABC929
BDAA92D2
3CAEDACD
BDBA1422
BCF7BE74
BCDB7A04
BC899DB2
3DC5AA81
BA6A81C5
3D39641F
3CBCA691
BA83175E
3D8BE21A
BD4BE292
BD833EA0
3B8A3078
3D0365D7
BD15F645
BCC83034
3DC2019A
3B76F592
3D161C21
BD0C923A
3DAE22B7
BD975774
3DAC25E6
BDA5E3D4
BD65B70F
BDBAAD9C
3D12946C
BE185305
3C1155DD
BDC2BC65
3C7E798B
3DF0BCD3
3925E9A3
BDCAE6B1
BBE18A0B
BDAA9B3B
BD84E3C4
3DDB9A8C
BC8CC25E
3DBEE500
3D2A8DA5
BCD1EF0D
3B2D2145
BC4007BE
BDCD4970
3DA450A5
BDBD4B1D
3B5593C0
3D91994D
BD7B17C4
BD8F3545
BD4C9A07
BD3F12F7
BCE02D7D
BDB97BE9
3C4D1F40
BD40EB3A
3C697BA4
BD5F9AEB
BDAE25AC
BCA770A0
BD6EBFB1
3D360916
BD1FA447
BCF2C55A
3D8B94BA
BCC81A74
3C9F7BAC
3DA9E5C6
BD9DB671
BD6D7532
3DC0E573
BDEBE7F6
3CE0BF88
3D83F2DF
3C9377E1
3D9A5341
3DAFD1CF
3C91D29E
3DA97155
3D54F381
BD72B54C
3D8F5EBA
3D8ECF41
BD1B531A
3D24F640
BD06D8A8
3D509088
3D918A9D
3CD6416D
BD0F92A5
3D5333DE
3D4C5035
3CECC33F
3D39EC51
BBD278A0
BC9D7BB9
3D49984D
BD813959
BCBAF7B0
3D3EF146
BC9D090E
3DADD371
BD2084A6
3C6484C0
B9A837EC
3AA0B58E
3B98C189
3D1DD23C
BD0271AB
3CCCA600
3B46FA83
3D7E0F2B
3D69BDC4
3D0840A4
BD8F50A3
BDAFBC20
3D25E7C4
BDA30BF7
3CF828CD
3D518F3F
3C2DCF4C
3D9984CF
BD0296F5
BDB9B7AA
3D97B7E9
BD5F858D
3D254E52
BCA84B24
BCA5073C
BDC8D493
3D08914A
BDB3EDF0
3D68725D
BC553733
3E0DD88A
3DAFE2C8
3664C7B9
3D77C193
BCF123E6
BDBD6595
BD088D48
BDAD62B2
3C86D325
3C57C215
BD3D62D3
3BA53960
3DBA16A3
3DAE60D9
3DA37D4B
BDA2239C
3DF60FAB
3CCEE3CA
3D171CDC
BC77149D
BD308541
BD7CD25E
3A65F880
3BC13C19
BCD91DD1
BD373C0F
BD1D4420
3D8DB4BF
BD2D4966
3DDFDB01
3CD9FA79
BC3FED20
3DCD1B33
3E03A2F7
BDC65141
BD56CE47
3D10769C
3CB5DFB3
BDAE1B5D
BD18D96E
3CAC1828
3D17EF13
BD48DD77
3C919B60
BCA672E4
3D033315
3CDC3B42
3D9E25A6
3DBB590C
3D7D9666
3CE4F3F6
3E08C960
BDA6E9AB
BC272B0A
3C7CFBA3
BD93F876
3DABC781
BD1E8E9A
3D73BA34
3D7FD659
BCDD63DA
3D06F0B0
3D525730
BD6B2134
BBBB7195
BD8E8C0C
3C88B653
3D984E36
3D39C3F2
BBA94B22
BC3861FD
3B8B9946
3D47D04E
3D6DFC7E
BD919502
BC8DA866
BCEEE9A4
BDB7FBEB
BD6C85D4
BCB1DC2E
3DAF6621
3CB69D49
3D8CE013
BDA9BDB4
BCF8F638
3CECA238
3D7EF71E
BD74AC4C
BD80D9BA
BD65266A
3D96FF7A
BD43CA73
BCABEBA2
BD434D3F
3C873FA7
BD9C1FB8
3D1683DF
BAB976D0
3B924DEB
BCCE7684
3D8B2A86
3D494EAC
3C48A2D8
BC11A24C
BD588E1D
BD69C137
BC808711
BC4A93C0
BBD73EB7
3CAB21C6
BCF79D9E
BD41AA92
3DE8F792
3D2367D2
BDA69AD4
BD5884C9
3D56CCB6
3D6B192E
BA47FB9E
3C236D14
BD370E52
BB088F80
BD9003FA
BCAC94D2
BD943942
BD1FF443
BD92C8C4
3D86A605
BD22E361
BDBF2BFD
3CD61A90
3D4F792D
BD9D37ED
BDFBB449
BD7607FF
3DD31630
3C5E21A3
BCD64233
BDAD8329
BC48BAD0
3D71ABAC
BBF9398C
3D0641FE
3DB936DB
3D86867A
3C7E1DFA
3D9A7255
3CF3D534
BCCC6667
3AB3B878
3DB00B46
BCEF425A
3DBA09DB
3D6BBCEE
3D951BE7
BD5BC66F
BD902216
3CB805A4
3C01C942
3D295361
3D82C587
3D39C0E0
BD143049
3D408322
3D764DED
BD7437C3
BCF086AF
BD24B5C7
3DB68187
BD5FA82C
3D3894A2
3D16749A
3D337637
BD628B18
BC6159C9
3DB1C015
BDD9466C
3D258C5F
BDAAD04D
BD0030AE
3D8BBFC5
3CE76975
BD67ED83
3D95A285
3DAFD036
BD43AF2F
BD0E4C2B
3D0E0A10
3B81D47E
3C72341A
BD9BEECF
3D67F694
3D952B2E
3D0C9AEA
3B5B9B6B
3CEE7A99
BCCEE987
BD866814
3D9A98ED
BE002EA2
BC313C10
3D06AA74
BD8C7AFE
3C96EF63
BD4C9F27
BDA432EA
3CCB2853
3CC7C4E7
3C96CD82
3C58F068
3D870A31
3E199852
BCFB91D8
3C87CFA3
BD4CE7D2
3C8E35DC
3CCDCF71
BDBBFD35
BCD37902
BD04EA09
BD16DEEF
39FB7141
BDC1DA47
3D00D4A8
3E153CD6
BD93441A
3D94A352
3DD0413A
3C923883
BCA2F730
3D6520D3
BDD438AD
3CB84308
BCA0221C
3C2FDE6E
BBE93ED7
3DA4584C
BCF3AC70
3D01607C
3CCB3E21
BD83AE30
BD66CBE5
BD6733E9
3C5F064A
BDA96A4B
3D0881A2
3DB6E73A
BD33AF15
3D5ABA3D
3BE796E8
BCC49AA4
BCFE04DC
BCFA4ED6
3C5A994C
3D1E1CE1
3D233032
3CD9956D
3D7DC8EE
3A7F16DC
BC4F40A8
3CFCD17E
3D493478
3C7A8918
BD324DFF
3E010143
BDBC182B
3DE40BF0
3DACBBA3
BDAD45DF
3D979D30
BD70364C
39866C02
3D2548DB
3DEAEF0A
BCD0A47A
3D7C01A3
BDE25D2B
BC71A530
BDBBE0E0
BD2262C2
BD02F5A4
BD49F859
BC290DC9
BDB4AF2F
3DAF4EF9
BAE3260B
BD9610BB
BE05CA62
3D24C127
BC6AC8E0
BD168E2B
3E03A690
BACC4E43
BE392305
BC290E77
3DBD7C24
BD39A0FA
3DA6D5BD
3DA0AD41
BD630D40
BC463A9F
BCD535E4
BDE40A13
BD251808
3E5C2BB8
3BA2202B
3D6F0FE3
3C709A8F
BD40576F
BD8F323A
BD9B1190
3C382FC5
BD7B4AD5
BDAFFBE0
3D9E6E1C
BD82F870
BD90B823
BC54B368
3D7FB8B7
3BF6839F
BD955FC4
3D5C77DB
BD9B3770
BD52C62A
BD65C4E0
3D972D89
BC877073
3D0DB216
3D6ABA9F
3D0A6E30
3D8F693C
3D35DB7E
3E12454C
3B41D91C
BC961EC7
BCC2E758
BE218AF5
3DBC43A8
BD4191C4
3DA0A799
3C988A91
BC9D520E
3D60EA72
BDA87BBF
3E518691
BC49ACE7
3DC8F886
3DAEAF5D
BDDA0B94
BA52DA88
BD729617
3C7254B7
BBE4574B
BD1AC731
BD5D0A96
BDB257D5
BDB94C36
3D9794C6
3BF73555
BD3CEAD4
3CAA3260
3B74F52D
BDBA9F4E
BE0863BF
BD100ED3
BD4B3BC0
3CA11749
BB96F711
3E076918
3D871313
3D4DE6B2
3CE327FD
3C1B7C37
BD0EC7B7
3DC30031
3D2976D8
BD12FD08
BDCF954D
BD773E35
BC7CF54B
BDA6D6C5
3D2E9B00
BE225C59
BD332730
3E0166B0
3D05E46C
3DB148E1
3E12AFC5
3DA74F90
BD85132E
BDB51764
3D1DACC2
3D6B8386
3D7425B6
BD5A44B1
BD63F1B9
BBDB0C25
BC8B0E1C
3CCF3241
BC75783B
BCE4B620
3C3AE8DD
BC19D35C
3BEC9173
3BEB845A
BB024160
3DB20645
BDAC5A56
BD4684C8
3D39DD0E
3D85CA56
BDB67790
BC80056B
3D542461
BDBF01B9
BD24AAC8
BC4AE485
3D47A261
BD8460E6
3DC63D34
3CC37364
BDA4C505
3D9DAE33
3D259595
3E47D036
3DB0023E
3DAB740C
3D866C7F
BE394106
3DABD5B7
BC5176AC
BD824529
3DC38F44
3D1F38EF
BC3C8E79
BD897F4C
BD7CE70F
BD7D4195
BD86AEA2
BD81B2D4
3D9200A7
3D492E28
3C98ECFE
3D242179
3DBCA7C7
3C8238A7
BD735F9F
3CA7A063
3CF3CBDC
BCDD10E8
3D78FDB3
3D66BC4B
BDB23483
3C20C69A
3D3BA07F
BD512E35
BD8AD247
BCF38656
BDB75ADD
3D537BEE
BDC81568
BDA0313D
BD7AFDD7
3D44BB81
3E47FE26
BDB6A60A
3D904C22
3DEFEBDB
3DEAD052
3C8F0801
3D918F1F
BD8A3F9E
BD92A35A
BD718AC4
BDC09217
3C990975
3C763196
B9F97800
3C311531
3C2E142B
BDE7BF0F
BD510E27
BD6B6033
3D52C4E1
3CB5E64B
3D94EC7D
3D576347
BD076C5A
BCA59D5F
3D893671
3CE2B74B
3DB9B26F
3DF789E6
3D48122B
3D74C4FD
3D1C78EA
BC03886D
3DAC21A6
3D362476
3CFC1EB4
BD7A1C1D
3DC8D130
BC89C7C0
BD13F03B
3DF861B7
3DAC7FD6
BCC368F4
3D95AA43
3D4107CF
BD5A4595
3DAFEF4C
3DFDF05A
BD0CFB11
BC083D9B
BDA84658
BDAA41FA
3B2845EE
3DBB27DB
3D2D7F46
3D7098DA
BD8A74A3
3D870771
3B2099E0
BCEE2822
3C9E8440
BCB86139
BD5238AD
BDD3970E
3BE43DB1
3D7CFD4E
3C08AC6C
3D6ADA2E
3CDB45E0
BD2AE71E
3D4A95AB
BA7F1C51
3DD1585D
BC0CA10B
3DAD731A
BD78FB2C
BDC36861
3CD9A560
BD904D91
3D99BEA5
3D9A3872
BD6354B4
BD1A9641
BBCD2349
3DB80C60
3B582709
BDC56215
3CE2EECF
BCE86314
BC8F4A64
BDC554C4
BD4A50C7
BC047D29
BD428B99
BDBD3BDB
BD8742EB
3D983445
3DB58325
3DA88F8C
3D6FEC92
BD4CFF9E
3D03C2E2
3D93C020
3D683A7A
BD0ED915
BDD87F30
BCD22395
BCA02304
3C7CC025
3DB70399
BDC3D986
B9848A00
BDBA81CE
3D199B72
3DA05D24
3D7CC848
3CEC0D32
BD60319C
BC888A84
BDC35315
3CED1359
3D207BF6
3DDF9A60
3DA230F9
BDCD635D
BD0F9572
3C38D3F2
3D844F53
3D410872
3CE6227F
BC9138AC
3DADE0F4
BBA22817
3BDBAD31
3D894732
3C383207
3D3EA7DA
3DD20F2A
BDA17CF4
3D2EAA3D
3C2A3D30
BD1F5BBD
BDB6B4FA
BCEA37DD
3DB45588
3DAD6585
BCB80217
3CD8470C
BDC7FEAE
3D2B77A1
3D3D38F6
BDB55C68
3BF522DE
BDB0BD7A
3D6815E6
3D2689AF
3D074810
3D4624EC
BD87C42D
3D18B6D7
3E01F204
3D4BB2BC
3B9E94C8
3D360949
3C04D66D
BDBC7BF1
3D942F6A
3D2E7DE1
3D867493
BCA892BC
3D4F9BCE
3D7C6F10
3CC00714
3CDA174C
BD8F3104
3D2C69C2
BD1FDE2A
3D88A35E
3B77C3E7
BD8DBFB2
B9969959
BD959C88
BC70F80B
BDA45674
3CFDC306
BCA7A4C9
3D874821
3CEEB868
3DC00613
3B810222
3DA8ABA6
BC7F26F8
BD2123EE
BD8DB9BB
3CC487B7
BE113055
3CF65DCE
3D8E558A
BD19719F
3AD4A7BE
3DDD9D26
BCDD4E4E
3D961B97
3C03AF50
3D7CC8C7
BBB21F5D
3CE0615C
3E0AF360
3A9A16CF
3E09D247
3D4E2716
3CAFA367
3DBCF3D8
BD6AE89B
3D7F370C
3D87B6BE
BD3A9634
BB9C7A29
BDEE98AF
3D352A69
3B5406C0
BDD14D34
3D8A7A8D
3C40BDD7
BD8448A7
3D871CA7
BD093A42
BCFE449A
3BCEB596
BD91B585
BE00C80E
3DB751F0
3D85F655
3D16768A
BD841A78
3E0552C4
BD688AA1
3C9DB850
BCD54551
3D3D5E17
3D65C1FE
BD3F0A7E
3D0D9D0A
3BA5E9CB
3C10A57B
BD84A304
3B81EDD6
3CFA4D92
3D6EDE4A
BDB62382
BBCD12B3
3CE908CE
BD44F1F8
3DA7A0C9
BD769BFF
BCB81135
BCE60348
BC8A585F
3DA5ADD3
BB3CA38A
3D682BBD
3D4CD60E
BD625036
BCF495E4
BE08795F
3D201FF6
BD8B139A
3D745AB2
3CB0066B
BC0BC069
3C5A1A7B
BDA36340
3D82A970
BA3929F1
BCEDC206
BE30DCE7
BC7007A6
3C0C5775
3A6FE600
BB76909C
3CB30AD0
3CDB9AA2
3E1B03F7
3D6AE20E
3DFCCD9A
3D159910
BC2E2378
3E3F1D9C
BCEBA33C
3E1D00FD
3D8A8AC7
3D0F5536
BCF66031
3D5C3DF6
3D035D9C
3D3921D2
3DC10511
3D9F19D3
BD745B41
BD5EA0CC
BB33B240
3DACCF04
BD5B2798
3DE47BEB
3D8F3928
3C6431F0
3D0BD992
3DAD5A52
BD2BE3B4
3DA05340
BDE05CA2
3D938A8C
3C231ECE
3D3AE9FD
3D745CDA
3D143F8D
BDB29FC9
BDA16696
3DE0C73B
BD48CE36
BD186594
BD9E8F28
3DA20981
3CE8FD2F
3C5C050A
BE0084D5
3BF5350F
BDE6ED66
BCF985F8
BD64B285
BDAFE97C
3D6FC7C8
BC597AE0
BC404DA8
BD74E62B
BD583030
3DB10997
BB29651C
BCA6EE65
3DA5E52C
3CD3C022
3D353C5A
BD1AC852
3C394D28
BCE41E36
BDA24449
3D58975C
39606400
3B2031B6
BD13BC4B
BC55B0BF
BD8DCE32
3DE74102
BDE15225
3DB2411E
BE0635E5
3D023926
3C0825EE
BD8A4DAA
BD7B6C88
3D66E6C8
3CB53E1A
BCD08EAB
3C9218C5
3DE94B14
3E04E05A
3C93E625
3E083CF0
BCFFC16B
3D172B21
BD676F69
BCC1C8B6
3D35765F
BD1F859E
BC9C9F2B
3D561A60
3C0B1E60
3E03D710
BD915CCA
BDF058FB
BD7C52D0
BDA34B16
3DB092F6
3D988F1A
BD6976F0
3B5C6120
3D48CB68
BD6BA6DF
3CCCA64A
BDAE788F
BDE49889
3CD3CDDC
3DBEC9BE
3A6C298D
3CBA6B2A
3C9C3944
BD118C83
3CEA3E90
3D100185
3D9406EB
BD5A147F
3B87A491
BDE03638
BD0185C2
BCA18830
BD76FA29
BD0887B1
3D2CA849
BD2AD4E1
3D1F9E52
BD2014F8
BD9EA178
3D4D3540
3C97E730
3D086887
3CA6F0C3
3D4E89FB
BCD0052C
BD2965E7
BD3DB342
BD991D5F
3CED46A0
3D896BAC
B91CD200
BD9B8AF3
3D9F30E1
BDC4DC67
BDA509AA
3DFCDE29
3D54BFBC
3BE1A15D
BCDFFCC8
3C0D4056
3D0994C5
3D61D055
BDD18B44
BCC031AE
3D744F90
3D5D232A
BD17E891
BD93F365
3CB561FB
3CF3B67A
3CA4A3F2
3E0A37EF
3D70361A
3B800DE7
3E368097
3D8152EE
3DF56732
BDAACEEF
BDC46E34
BD20B78C
BC96BA2B
3D7E8BA9
3DF22966
3D1083B6
3DC88FE1
BD657ED3
3CE89006
BDB8AEB0
BCE362E7
BCA7D564
3C3A77D8
3D79C294
3CB0C594
BAD47E33
3DCB2D07
BE0AD731
BD450913
3D996A1F
3D3BDC88
3B7B113F
3D333569
3D3EEE94
BC7CE1B8
BD41472E
3D62BF60
3CF525D7
BC459E3F
BC7ADD7B
3D1792BB
3B8DC171
BD1A81F0
3DEA9893
BD30E07B
BC23081B
BD9C9B8B
BDA4B376
BDB63D48
BD3E35C4
BDBCC16E
3C440ADD
3C9EF624
3D244828
3D38685E
BC69299C
BDBFA191
3D5DFB55
3D9C3935
BB867466
3D8AAC45
3D4537C1
3D0B811E
BE0F2452
3DC3E4B5
3D88CC50
3C275B28
3E1075B8
3D2568AA
3D5B3E7D
3D655432
3DD93185
BE131354
BD959CD1
BE167AFF
3D97092D
BC0AC2A7
BD748899
3D860878
BC23EAB2
BD52F562
3DB7FAF5
3D9C23BB
3DDCA72A
3C62A1D1
3E1D694B
3DDCEF0B
3D2112CF
3DEB90B5
3C53C04A
3DB19DE5
BDAFD5E6
3E2CEDBC
BD26652C
BCB85163
BD900044
3E02262A
BD9FE9D9
BCEE84F3
3C0E46E0
3DA641E2
BD59D766
3DE9A047
3DF04017
3C1721D8
BDC1F41C
3D1C4D4F
BDA4D87E
3CA84024
BB31A686
BC664A29
BD5031D4
3D21CB08
BDCE2BB8
BD4BCDA7
BD4214F0
BDC68ED1
3C516FAE
BB07035A
3E134EE4
BD56B572
BDBC1942
3D821B5E
3DC6514D
BD983B42
3D8FA951
BDCD1933
3BE3D6D0
BC031690
BD77CD85
3C66737F
3D2A3C6E
3D376DC2
BD966E99
BBEF4A29
BC02E1A0
BD0022E2
3BFECCA0
3DB72BB3
BDA56AC1
3DB1E071
BDA80EB7
3D0B58C2
BE789380
3D26CA6D
BD58137D
BCA0EF88
BAF873F7
BCFE9704
BD4B4473
BD819B52
3E09799D
BB6E5BF9
BDA31ADF
BD83F779
3D9BECD0
BDA057B4
BD845C94
BCA64797
BD6F8AB0
3C5FF999
3DC118AB
BCAD24E6
3DE6DF91
3DE37068
3BFB9DA7
3DCCFF59
3C96030C
3DB72E3A
3D468F9A
3D482DC8
BA3CDD03
3D9E1EEB
BDC9ACB5
3CD3B7C2
3C1A7598
3E377A02
BDEF3B8D
BDFE5C65
BD11681F
3D2558AB
BCB7F5F1
3E074296
3E03A784
3C9724DC
BDC3BC1B
BDA1FAB0
BBBBE918
3D52924B
3D907955
3E24405B
3D2094E8
3CBB2720
BC073552
BD5CDCD4
BC80D0F8
3D851875
3D8D79CE
BDBAE8F3
3DF8A078
BD92063F
BCB41948
BBA2A068
3E2D52CD
3DDF201E
3D9CAEAF
BE285B99
3BCD90F0
BCC0EA74
3D663ADE
BD80AA1F
3DB26E4F
3D615822
3C9C76DE
BD80D2CC
BC556961
BDC398B3
BD8F677E
BBF71E6E
3D8FE127
3DA965E5
3DA4F5D2
3CA87B8C
BEC9F80A
BCFDE491
3CBD4EA0
BC8281C0
3DBEAA35
3BA8DC2A
BD13E2D2
3D6D899E
3E030861
3BF8B001
3DA7DCA4
BB91EC01
BDBC0A32
BD043123
3B88E9D0
BC16EE16
BCC48CA1
BDABC958
3C3CA5A2
BD5FB0D3
3E2BB3A5
3DA14774
BC8B7ECD
3E221150
BE305061
3DDFE084
BD91468D
BD0B88A0
BB8A2183
3E18533F
BD52CB4E
3D71AC14
3D8C88AF
3D9D0F72
BE3C1731
BE286A39
3D8214C1
3D559FB5
BDB3C658
3C869FFC
BBD6B279
BC3054A0
BDA862C2
BC3AB37D
BD2BAD25
3D4CC0CA
BC0A6FF7
3E2E66E7
BB8E19A0
3D998AE9
3D8AF36A
BDECD60E
BD8302B2
BD0A10FA
3DAB9583
BD25128D
3DC64558
BDA183E1
3C931B38
BD8A360D
3DEF3633
3CC7BAE0
BC6DC2CB
BDF72A54
BD095735
3DC198BB
BD5BAEB9
BD8A4896
BC41F678
3D00BEC6
3D7E4E9B
3C215BF8
BD954915
3C374827
3D8DF9A8
BD1ABFE1
3D2C1802
BC192A80
BDB2CC93
BDB73854
BED7797F
3D991463
BD375234
BCBFEED4
3DA76FC3
BD45E81D
BD04DD16
BD256FE9
3DE5F532
BE356EE3
BC764065
BB24ED3A
3B465751
BCE6F09A
3DA23131
3D19132C
3C896E1C
BD97D16D
3D17CF60
BC8604F8
3DB93F60
3E19DAAD
BD8251C2
3DBD9ED3
BB8E438B
BD4EDD31
BD315ABD
BD31C335
BDA96C0C
3D205F7F
BD5C8E92
3DA544BF
3DB812E1
3CA0E49D
BCE92643
3C707D42
3DAF9B45
BCF5CBA7
BDC6802C
3DA02C2F
BD2337AA
3BBA5EF0
BD602314
BC8B256D
BC7A4661
3CDA32B2
BCA2E253
BD8253EC
3C976160
3D648CF5
3C49B041
3D454832
3D4B3ED6
3D2153D7
3C7A9478
BD77B7CA
BD208DF8
BD0314FB
BE0FADD8
3D51529B
BD1D11B1
BCA48A9F
BBB21716
BE146CC6
3DA5000D
BD0FDB3B
3C473189
BDA71320
BD3DA152
BD99A21F
3D961055
3D01FA3B
3DEB5871
BDA85BCF
3A8C8EDD
3D5BDEEE
BBE81467
BD149931
3D03A7AF
BDBD78C8
BEC29815
BD636B25
3BBDCB7B
BD300A07
BD7A96A4
BD9A7290
3D9A4313
BCAB2CB4
3D5866D3
BE318698
BD46E146
3CD6E7A8
BC6C9D2A
BDB7108D
3D3B94E2
BD3E5BFF
BCEC2D1B
3DB58E0E
3E78416B
3BDEBA43
3D806B69
3E2B3D15
3AFA56A4
3E0F0451
BDA277A6
BA7EBB19
BDB61DEA
3D6453E3
3D849921
BDC5E940
BD8D0C41
3E12D78C
BD99A98E
3D65EC8D
3DAAC659
3DAA2877
3D35CF22
BD851125
BDC06EF6
3D7CEA57
BDB3290A
3D8E8235
BD881A45
BD4072E8
BD9E9120
3C7AC140
BD77438E
BD9FCEBC
3DBB629A
BD1BD16D
3D92A8F1
3D399387
BC966AB7
BC997004
3E092552
3DB65344
3C348798
3D805C21
BDF9117E
BD596A85
BD0761CA
BD760F8A
BC764C78
BE1562E4
3D952581
3DA0BB15
BD939A8F
BDC5E269
3D5657E8
3D7E607A
3D327100
BDC00543
3D85EA2B
BD2BAC51
3C6BCAAE
BB9C3C48
3C8DA479
BDAEE6FE
3DAA3B50
3CE1F088
BECAE54F
BD2FC7D1
3DD3CB04
3CE21300
BD98217A
3DBC9B2A
BC549432
BD14708C
3CE26AD1
BD228DE6
BC75DE0C
BCA7D502
BD840E49
BA1B8FE2
BB2C0A20
3D4A388A
BCFEB9AF
BD7A405F
3E80A54B
3B573A4F
BD8F6A5D
3E2A1A18
BD9AEA25
3E56B791
3CECC713
BA469CAD
3C1DE97D
BD2CBEA9
3D36A5AB
BDFB68DE
3D3E225F
3E0C2872
BD9F96AC
BD80D034
BC92EFDD
3C1BDF54
BD2F3F8A
BD5AF7FE
3D8852A2
3DEF3A96
BDF339B5
3D484636
3D8C734A
3D898D27
3D2E67EF
3E2BC3BC
BE2C6E25
3CA7DD1A
3E453027
3DAE6067
3C4C95B7
3D4219E1
BDBCA37C
3D8F0FDB
3DDF56AF
3D9CCE70
3CF122F7
BCA8DD11
3D199911
3D924BB3
BE21C540
BDC23ED5
BC0A49D6
BE3747BD
3DA8B8A7
BD2B6449
BBE323B6
BD8EAE77
3D8F6AC9
BD1662AB
3D90902F
BCA2A5C3
3E1CC77A
BD4E6D99
BD60C358
BA11960E
3CAD93E4
BDAE7DB9
3C92FF6A
3D763CDA
BEC7B178
BD3C1B0E
3C941E73
BDBCBEF3
BE4DC366
BC8B1CFC
3CFE4391
3D24377E
3E126219
BDBD559B
BD89FA7B
3D1FE3FE
BB1E3DA2
BC4ACB1D
3D291502
BDAF662B
BC83A554
BD390C2A
3E4C4C6E
BDC9F064
BDCD293B
3E64A31C
BE6D04E7
3E6AD992
BC3639B1
BDD2AF28
3A58DFCE
BD19D5EC
3E076F5E
BE8266F3
3D758DCC
3E648E1B
BD99BA63
BDE0727D
3E6F7304
3E3727F3
3D158FEA
BE3DB523
3DBB854A
3D0E52FD
BE134F98
BCDF5678
3D03F5E4
3DD982F3
3E04078F
3DF0F2DC
BDC5A67E
BE1132F5
3E5A4387
BCA15777
3D3B1E5C
3CD23C37
3B7A7DAA
BD0438B7
3E2A9983
BB46D985
3D9613BD
BD43C0BB
3CC6A50B
BB82D788
BE290B51
BDF14E47
3A9D4C39
BD40C142
BD8AAF64
BCEE790C
3BB153AC
BC81C2D8
BB84F808
BCBA3C84
BCEE48CC
BDB78CB5
3C8DA2DB
BD00968B
3D1BD515
BC86DBFC
BC4F4258
3C5813E0
3D61075C
3D05C19A
BE06DD1A
BE8157D0
3E5E2D3E
BC2348B8
BE22F665
3DCC86CA
BB007B15
BDB2A7E7
3BB2FE38
3C81AD92
3DA1FCFC
3E0AD4C5
3D9748DC
BD78B4E4
BD8A3D12
3D0EDFD6
BE58C2DB
BADDA8DB
3EA80832
3D41A333
BD87095C
3E52F712
BE0ACCAC
3DECB8FF
BDCC4460
BDCA72A4
BCE43030
3CBCBC87
3E3A6F54
BE20E059
BD0129DE
3E296417
3CFE1DBC
BE3F5F92
3E82837E
3E657599
3DA23673
BDD00DE0
BDC2B477
BC2C5FDA
3CDA25C0
BBA31370
3D5D64E9
3D2DFC8B
3E54A754
3E41EB1B
BD962796
BD69AB18
3E7B5943
BD82AA7F
BDCE3639
3D86B49C
BA442314
BD5BD20F
3CF21125
3CECEFD1
3D86F6F9
3D2666E8
3E26BAAE
BD915558
BE106DF0
BD178EA1
BD890DC7
BCD2CED8
BDA54260
BD8A784E
3D87CC14
BD08DCD2
BCA13C1D
3D3E03BE
3BC479BC
BD9028C1
3C7EE7F5
3CEE561B
3D625017
BC1A1223
BD4C9810
3DB95DD5
BDB98057
3B3DBEE0
BDA3262D
BE86EF53
3E94771D
BD8AEFDD
BE4161D7
BD4D63B1
BD132D7A
BD4FD165
BDA126CC
3DB70469
BDA97B6B
3ED03659
BD5723A7
BD3273E5
3D15215A
BC906479
BD04DA75
BCB7DECE
3EB2BA0F
3D982184
BE2CAB04
3D670EDB
BE4D6B36
3D825F3A
3DDE3270
BDED80C0
3DA8CB6C
3CEABB46
3C2C49BC
BE157C9D
BDAC1830
3D8A3986
BD925B13
BD8B6887
3E2BF3B3
3DFF6454
BB2325A0
BD7280AC
3D1858D3
BDB53E79
BCB78E35
3D06D43A
BB09C82D
3D8FE60E
3E60998E
3DE98FE5
BC5209FB
BE65C7FF
3E4153CF
3D9F3116
BDB6C2F5
3DB3A4F6
BCFA6F66
3D8B9394
3D625A6B
BC36FDC7
3B4A81B3
3CFB5A27
3DAC9E39
BD93A032
BE3C28FA
3CB6187E
BD299779
3EFECCB7
3D009262
BCC96D64
BC805566
3DA6229E
3D43F956
3DBEBE7B
BD5B2612
BDB7D269
BC05597B
BD30C02E
BC5ABB15
3DA37D2F
BD66CAE7
BC192A18
BDC2F629
3D7EE06A
BC661DE6
BE513AF4
3E883736
3CA653C4
BE62E3FE
3DA0DAE6
B9C3A593
3C1E8758
BD9ED213
3DC48EA0
3DADE79F
BC7A7788
BD76992F
3DDAEABE
BC8E3138
3C4CEC6D
BBB0F3B4
3CCCCB59
3D11CD6B
BCAE2666
3C81F21B
3C3C58E9
BE7AF49D
3D969A15
BDD6C8DD
BE2BD58E
3D6594FF
BBF5C9AA
BC4B95FF
BE0A0EDA
3D34A7A1
3DF8751F
3D830D71
3D013114
3DBB8956
3E21E1EC
BDB66E55
BD99D39A
BD95EF8F
3C50DE85
BDC80FC8
BCFA1660
BD9BC1D2
BC91083C
3DDE1AAF
3D6C8077
BDC58629
BE362C76
3DF951BD
BD134E45
BDACEE2A
BDB20595
BB2322A8
BB9F876D
3DFEE339
3D2D6F94
BD84B776
BD314B0B
3E2F5AF3
BE006447
BE2A3F3B
BE02777C
BCB4BF7D
3EB1BD55
BD958AB6
3DA342EF
BDB8DE2C
3CA1A6BC
3D85EB9F
3CC56A8C
3C875D71
3BE58CCE
BD1FBF22
BD03530D
3CC3C627
3C5F02C2
BC575ACC
BD7BCC5F
BD8C7861
3D0D3C8E
3A0CBF31
BDA45037
3E7D3CEF
3D0B8786
BE3E2CDB
3CD14883
BDBDE76E
3D29E7A2
3D3D101F
BD14E51D
BBD7B412
BE28EC06
3BD779E1
BB98A558
3DB2BE8B
3D42B556
BD288632
BDB024C2
BCD7FF3C
3D1071FF
3E064BE1
3DD4FE48
BA3B25B8
3D6276BB
BDC46993
BDFBAE81
BD419D44
BD7EFC56
BE0303EE
3CCDAA68
BDC83C39
3BD49D7D
BCE0D8F0
3DFA6363
BD439643
BD280260
BDADBC15
BDB2AC6A
3D8E197D
3D72775F
BCFCDE76
3DBDEBA5
BD4EB2D2
BCB91230
3D84D31A
3E1AF2F8
3B8E58E6
3D3E212F
3C7438CE
BD2BFFEE
BC89FCBF
BDE0EF0C
BD0C2716
BC87914D
3D624F79
BD8F6151
3D14A913
3D4B214E
3D181CFA
3CDCFD9C
BDBE6294
BD1C77F8
BB80A1F9
BCC6F7D4
BD8C8BE0
BD235DF1
3C88C95F
BD646D96
BDB49C4E
BD49346A
BC43FD0B
BC4730A2
BDB30252
BD81E2F9
BDAF8D86
3D296F9A
B83A4424
BCE0438C
3CEA9B24
BDAB9A40
BDDEEB17
BD83CD17
3D0FB455
3D3AA172
3C428351
3D4465A2
BBDB0473
3D547266
3D8B649F
BD9428C4
BC75FF7F
BDD70B5F
BC9E624B
BDAEC3D9
3D581056
3D7EC388
BD657891
BB9D208B
BD979B7C
3CFE1F3C
BD3F3182
3D8E81BC
BCC914B3
3DDF61F2
BD547E77
BD088661
BD8BFA82
3D6F440C
BDEC1F9F
BCF78D9D
3BFE3B63
3C66FE3A
BCE154D4
3E0734F4
3C844A19
BE013D7F
BD5F8473
3DCBF6B0
BBBAED4A
3D584E94
BABB4C40
BD537C67
3C0F8F1B
3D4A4096
BB6A2424
BC381CC4
3B80DC40
3DCA99FA
BA3D1B87
BDBAC89B
BD991C35
BD94AE37
3DAC01D9
3D0A279C
3E0A5A24
BD67FB8B
3CD959E7
BC918C5E
3BE3E317
BDB5E0AC
3BB120BF
3D98E560
BD595D82
BD50BB07
BD92977B
BDA8715B
BD6536A6
BDA66CBD
BDBF86E4
BD49113E
BCDE17E8
BBBA73A7
BDE49850
3C870CB8
BC5166C9
3D03ACFA
BDB97D66
BD5D9872
BDAA00A2
3D1F1E32
BDD2AACB
BC7CE57A
3E257197
BD7654C1
BCB80C8D
BC2E1DD8
3BD1E534
3B892E80
3E07577B
BD6698FC
3D25433F
BD734957
3DAF12E1
BD9547B0
BC9A68E8
BCD7E12E
BAC3A51E
3D05F399
BDD36E95
3D90F00F
BB978B25
3E0409A5
3B3E70C8
BD83E758
BD39FAD0
BD9B8018
BD98E68B
BD9D4B81
BDB232A8
3DAF180E
BD2BF353
3E009BEF
3D367B72
3DF29E9B
3B8BB42C
BD8F481B
3CB53780
3C0BE02D
BCACF0A5
BBC59D4B
3E0269AB
BD8922A8
BDB0C5DF
BDCC518C
BDCE2F6E
3E0A80BE
BD049053
3E3FCDAD
3D213192
B92D695C
3D988817
BDF27EA6
BD5C9ABF
3D0EBD57
3DAB3A56
BDB0F72A
3DF59AB1
BD6E9353
BC11804A
BE1062AC
3CFABD78
3E25ADEE
3D12C738
BDF996F4
3CFEAF6C
3D99A2CD
BDA7FD1A
3D85C0E2
BDA3C722
3BC10510
BD38164A
3D109BDF
BD921778
BDB005F2
BDBA6CAD
BD004739
BD5DAE0F
BC3CBCA0
3BD8B31A
BD6AF0A1
3D3670BE
3E071493
3E2C8758
3C60B3F0
3D7B17F3
3D885D0A
3CAC979C
3CA9A34C
3C7608DA
BCE6A092
3DB9EF16
3DE30B75
3D408991
BD22C486
BD9D4F50
BD12EBBE
3B6155F9
3A400C66
BE058325
BD43FA88
3DC40BBB
3E093443
3E460A89
BBBA6234
BE302BE9
3C5DE4B1
3CDD11D4
3C75A913
BE34C595
3E594235
BDB96470
BD43DB41
3D9C35B1
3E45A14B
BE250491
BE1A6E72
3D105352
3E29ED79
BD966C93
3DF87200
3E3241D2
BD36AAF4
BDA91508
BBB45B17
BDF0F300
3CA33BD1
BC4778B8
3E686F0D
BE1F2805
BD776B04
BD4AC70A
BDCC63E6
3D8F233F
BD38D47F
BD0E9DF9
BCEB2EA2
BCA7224D
BD51D05C
3B9C2021
BD9458FC
3DAAA1C9
3DE85A01
3D31D524
BE4D4614
3DBA64E7
BD85209F
3D911D7D
BD8175A3
3C0294B0
BD2A3978
3D853BFB
3D7EE334
BD457E9D
3C793C98
3C93420A
BD708EA7
3D509B23
BB4947C0
BDC74B18
BA8AF2C0
BCB6D50F
3E232E4C
BD0721AF
3DBCD873
3DECC630
BDD002AD
BD36BEED
BD4A2B0F
3DF8C703
BD625576
3D896C1E
3DACFF74
BCB9DC15
BC94FCF3
BCC224AC
3D7F9846
BD82CD89
3CA8B96C
BE364285
3D0F1E5C
3DC4FC79
3D963C81
3E335FBD
BDBFEA2E
BE2714B1
BD24780E
BDB31097
3D1B268E
BE36F9E3
3DDA32CC
3DAF55D7
3DC692C0
BCDA6D6C
3E9913DC
BDF86B60
BDD5D898
BDB9B474
3DAAC178
3D10EB2C
BCF2F59C
3E17C305
BC86B700
BD8AB388
3CD1E4FD
3B4274D5
3BE5D460
3E1763E7
3E8EE3EF
BE2F6099
3D95F1D5
3CDCA1E4
BE405013
BD9189CB
3DB568AF
BD8B20A6
3DADACA6
3DD46A3F
BDBB2EA0
BD971EB0
3CF0B199
3D89D72B
3DCCC243
3D1F8D5A
BE525FCC
3D86831B
BD99D191
BDA3E6BA
BC20A418
3D98309F
BD30EA8F
3D65E7B2
BD7C2FF2
BE40112E
3D7CF563
3C44906C
BD882814
BC823962
BDB2FDBC
BDB5A365
BDC017C1
BC8C148E
3BC4889C
3DEDD134
BDBCAB30
3E21EA30
3C8FDE2E
BCEBC338
BC98BC68
3D368E6A
BDBE1302
BDCA8518
3C8A7A4C
BD285AF4
3B93A4DC
BC5B59A8
3D9BC445
3D1A114C
BD8950D1
BE30F924
BDC81143
BD43AF67
3E4FC04A
3E12948A
BDD09859
BC22190E
BD9179AA
BD8F7090
3D87F0CF
BE5E3E83
3E6A81C3
3D0A7D0A
3C6FA2C5
BCC30970
3DD530F5
BC827E32
BDEDC2FD
3DB88EFB
3DA64225
3D24E226
BC7D08E4
3E69C005
3C373EC0
3B5370A3
BC4BC964
BD12B5A3
3B7A0575
3E25DEFD
3E4A2117
BDC6B5DB
BCB33E83
BDCF1B62
BE4CF0E6
3D28EB2D
3CF410CB
BD921463
BC0C2059
3E0F4324
3DA85ABA
BDA31B0A
BD1F4F0B
3DCE0613
3DF2DE34
3DAC92F3
BE50CF96
BDA29420
3D20F1CE
3D247257
BC8F7DC2
BD00688C
BC284A28
3D67329E
BDAE5225
BE4769EF
BCD66ED0
BD90E55A
BD312A74
3D45265B
3D53AF92
BDB5A9DA
3CE36AB8
BD8F6D64
BCB6477A
3DB2C386
3D71887A
3E503595
BDC79CCE
3DB71F58
BD63A97D
3DE290B0
3CBB73D4
3DAA0C83
3E50DC3D
BD75B8A9
3C6BCBE9
3BC12040
3CBC7C8F
3CABA77A
BD8A27D2
BE185ECB
3D402E36
BDB44B34
3E486A29
3E0B6F82
BC55F539
3D0479A2
3C831F3F
BBA2C5F5
BDCD2422
BE29D482
3DD54F63
3D33C1AE
3D853B9F
BCDBF29C
3E2A1545
BD2577E1
BE5AAA45
BD2C3D55
3DA3E4ED
3D0D516F
BD901DE1
3DD3D401
3D3ABF5A
BB85DE54
3D8621A6
BDC99C02
BDAAB2A7
3DE755B1
3E087AA0
BE2C01F1
BDB80154
BD1EB7D2
BCB66FE7
B7AFCB14
BD8C00BD
3C965B79
3B9606E8
3E553317
3DA307C1
BDA52C0F
3BC7DBA6
3BD206D6
3DF07536
BCAD487F
BE7A4227
BD593A6E
BD21D08C
3D177640
BC4FD17B
BB0DA2F3
BC0ECE18
BD4EF9D3
BCE76DF1
BE00DB3F
3D53ACAE
BD853A79
3D45AB01
BBB95FB6
3B72D420
3DB0FC90
BCF394EC
3CA55DB5
3DB345C7
3D9B49D1
BC996D70
3DFAF49B
BC7A4F8F
BDCA981A
3D366C8E
3DE47DBF
3D120FF4
3D16E0D6
3D23EF87
BCFB2D20
BE020AB0
BC935028
BD24637F
3D4CBAF6
BCD753FD
BDCEFD8B
BCBA82FA
3B58218A
3D842BC8
3DB6DB7F
BDD94048
3D17EFD1
3DAA7C2E
BDCE745D
3D2203D9
BDA5DB3F
3E2AEB64
BD8B2ABC
BAE2A458
BCF05F28
3CA4852D
BD8AB186
BDBDB291
BCC05CA0
BD15EC7F
BCADF094
BD122F62
3DD9DC29
3D435EEE
BDACB36E
BCEF8648
BD5F5115
BDB29C81
BD28275E
3DFEC2FB
BD91450C
BD4407B4
3DB18B33
BD509A59
BCA06881
3D324B6C
BD821C9A
BD5AFAB5
3E1F76B3
3DA64637
3DAF1897
3DEE70CB
3E140C77
BD06939D
BD82A78B
BDDF4BCD
BDAF5AEB
3D8D2793
BDA53ACE
BDBBFDAC
BD97B7E8
BB309A00
BC953127
BD9CAB65
BDF2BC62
BC8634D4
3CB8F627
3D9ED643
3DA274FB
3D9D7FE3
3D3A7A8E
3D8E8C13
BE08305C
3DF0B164
3DB846EC
3D7CCF72
3D031390
BCF98FF0
3D934899
3DA51A91
3DAD5D22
3D164406
3CED3552
3E042EDE
3D9B6D8C
BDB76C47
BCBFDDB8
BD01481C
3DD572D6
3C5EC71F
3D6A34FB
3C9E73C6
BD70A720
3DA182E3
3DFDE5BF
BD5586A5
3C853FCF
3E06787F
BB3C2907
3D870B30
BD2F6A5E
3D39681C
BD8AB1B9
BD066FAC
3D51CA7A
3DEE7C83
BC5951E2
3D32DFB7
3D7D2346
3D7203D5
3C7EBEEA
3B7C6F17
3DE04D2E
BDAC937D
3D86DE7D
3DF91707
3CE34D9F
3D815822
3D1469C6
3CB5B6E5
BD5DB82A
BD4321D5
BD7CAAB2
BD8380D5
3C8A142D
3DB7698B
BD9FE4C9
3BAC87D8
3E0E3B72
3D9706E8
BD924BD5
3D364211
BCE80AA9
BDAEAE0D
3BF4C4C5
BCB3CC6C
BDC0C979
BC907370
3D52B63B
BDAE3D43
3C076A72
3DA068AD
3AFCB78F
BCE10D6E
BDA8FD6A
3D809733
3CD1FF60
3D35FA71
3DA2CFE6
3DA85553
BD8942E7
3C111D28
3B1633AC
BC8F6316
BCBA131D
3C6A4CA0
BCACC499
3D9BB7C1
BD97E504
BD8BF2E8
BAFA71A2
BCC760EB
3D247B51
BD72E43B
3D57C14E
3C56CC8E
BC9D4218
BCAC499B
BC0DBABC
3D617E91
3CB1DE1F
BD29FD7E
BDA252B1
3CDC5F93
3DBAA797
BCD49942
3C33FAEC
BC97D794
BD045507
BD3DF16F
3D5A897E
BDB5AD85
BD5C218B
3C3AA647
BD116C48
3DD480B1
BDE93872
BDBE296C
BC8135C0
3D16DB80
3D909A48
3DDA306F
3D007B9E
3C1D9840
BD1AFC00
3D85D1DE
BDBF829B
BD8364E6
3D0148D1
3CF82C9B
3DF8F6CA
3BF2653E
BDB2805A
3A9710FE
BC7AB218
BD9A2108
BDB2757F
BD9F93E5
3E1A16A5
3D2C0204
3CF3B2E9
3DA15A04
BC70F4E6
BD9A4181
3DB1C04C
3D44D86D
BD1C3F5F
BD26D1FB
3C66C27A
BD341B71
3D6636AA
3DA382F9
BCE92103
BB9F5701
3D24E5EB
BD0BEA9F
3D71C2D6
BCEB51B2
BD4D55A1
3DC1CB11
3D58BB7B
3DBA1CFF
BDDC77F7
BDA3203C
3D56ACC4
BDB3DA5B
BD493D73
3D377F2C
BD589000
BAACC780
3DC03DCE
BDD97C7A
3D1C14C5
3DB5F157
3D81A912
BD121DFB
3DB0C7C3
BD43E4C1
3DAC5C35
BDA76F42
3D4C77BA
3DB625F9
BD82FC65
3DAB8719
3D5B3882
3C4A3A70
3D22D765
3BBCF947
BD3CAEF8
BCF86A85
3DBAB4B4
BD8AB041
BD421D7D
BC9B4736
BDB1AAEB
39971230
BCE03BB7
3DC8D981
BD6FECCE
BDDC8F1D
3C9C53B2
3CD65E60
3DD9900A
BD7BBC85
3CC789E1
3E3489EA
BD9C2CF6
BDD07268
3D5FEC46
3D8B440F
3D4C432A
BD8A727D
BDCC3F87
3D66209A
3D9EBA08
BDB01D86
BCABE22B
3D03A428
3D98FDDC
3CCCB7CC
3DE5CE8F
BBCAFA49
BAFF6A2C
BE0E292F
3D6F3166
3CA39BFB
3D63CD4E
BD80C7EA
BCC3359C
BDC96ADA
BDB26DD8
3CEF1C00
3D717EE8
3CE4E13A
BD365F41
BD3A92B7
BDAE71EB
BC6B9B9A
3D1FD7A6
BBADF9F0
3D0F497E
BD50974A
BDB97602
396F5699
BB9FAF5A
3CC1F8DC
3DE13C63
BDAB0A71
BDCFB885
3D7C31D6
BC1B840D
3DB532F0
3DB6A9DB
BCDFC3C3
3D709066
3D870537
397B1200
3D961B83
3D244998
BDBFB2CA
3DF84D25
BC7A5756
BD59634B
3D1E311E
BDA6652D
BD890D97
3D8D3E2A
3D9983C4
3D44C811
BDC091C6
BC92DB7A
BD371D29
BDAEDA56
3D36ADA2
BCB15F34
BD9F10E4
3D9E0534
BD9D1FE3
BD91D60B
BD8BD80D
3DAF9B39
BE14065A
BD4BDF2D
BD74ED91
3D8482E3
3E5176F4
3D790655
38F60F1E
BCC7F319
BAC2BD3D
3DFD6E58
BB9E5DD0
3C25CFE2
BD94842E
3D043F53
BCDBB894
BDD303FF
3D74F4DF
3DF8E5CE
3C81E11E
3D5DA070
3CAAA3A5
3D61C6F7
BDF69B67
BDB81B0E
3BA0F519
BC4C4DE0
BD9A85AA
BC341B52
BD0883F6
BD3A0C5A
3D367CAA
3D9428D9
BCA5AE95
BD8CC05F
BBC479F3
3CB8EF4C
BD7648A3
3D1B7324
3CA3F8C8
3D14AD65
3C316110
3DFE0F2B
BD515957
3DF11A18
3C0FA3F0
BD58445E
BD62291F
3D6471F1
BB360720
BC2744B4
3E138214
3D8F7DCC
3D27EF57
3D684E55
3DA64BD8
BCD0BD84
BBC196B7
3DC95BFF
3D95E204
3B2A7A19
BD13329C
BE3BB201
3DBEA0CD
BD42A0A8
BDE89F6E
3DF07A08
BD37B370
3DB4382A
3A6F8A10
BDCDE8FE
3CFCE371
3C88EC52
BD89AD06
BDAF15B0
3BF21AAB
3C0AEB5C
3B93B31C
BD2EE3CD
BE1DE21D
BDA651FC
BE4469EF
3CD8900B
BD1B6BBB
3C28E87D
3DAEF5D4
3D50058E
BDEEE7EF
3D99C763
3D9A5BFB
3CDE4DC3
3D0A27F9
BD4AFFE0
BD50699D
3DADB8A7
BD82FD06
BE383C65
3D19E1E9
3E62491F
BCEF1FB1
3E1718F4
3E47AAE1
3C77FCDA
BDDAECC1
3DADFB5F
3CC7C2B0
BD54C47C
3BC77920
3D9AD2C4
BDC693DB
3D1D9251
3DB2B171
3C68629C
BD69B718
BD82143C
3CF295F7
BD8CC636
3B81B672
3B440B47
BBC67FB0
BD07B579
BDB5DB72
3D3920B9
3C8D8873
3E59AB6F
3D8F0B6D
3D70C9A6
BD0D02CA
3C9E3896
BD97343E
BDA36190
3D13F3CF
BDC7128C
3D9DBE49
3C992202
BD77F98C
3D7C0546
BCFEBBC6
3E52EAD4
3D8CEAE2
3E156D67
B9948C2C
BE8BEADA
3DCCF0DD
BCAB917B
BDBDEA75
3E1445A9
3D9F35C3
3D2F1462
BCAC6BB4
BDD9E970
3CCC9C88
3D95D5C6
BE00298B
3D868FA1
BD8BC930
BC35C3B2
3CFDD34C
BD9B3C92
BD2235E9
BD7A50D2
BDB2FDE0
3E40DB34
3DB2793F
BD9EA1BC
3E61D65E
3E0F6923
BDA2CE98
3E2BAA9A
3AD1AC16
BCCBA346
BC294F29
BC51F415
BDF23363
3D941B62
BDCEE90C
BE2ECE3B
BDADA0EA
3E88EE69
BDA23FD3
3E0F1138
3E438C86
BDC32EEB
BD2E1527
3D7A075D
3D3BDAFD
BD65D0DB
3DA43611
BC618CBA
3DA9BA07
BD4BE501
3D3DBF36
3D96A9BF
3D233532
BDB17EBA
3DA779FC
BCD64FA8
3DA9DC06
3DB50339
3D1F9496
3D26F859
BD227321
3D547D1E
BE186300
3D979FD4
3CDFDB68
3D009109
BD09B4FD
3D226FDD
3D9AB091
BE815AE0
3E5185FF
BC2FF3FE
3D8FC4F2
3DB10B23
3D0BD201
BDB7596E
3D81760E
3E2EFCB7
BD43E9E1
3DFF1DCE
3C0FAC50
BE06CA42
3DBE08F0
3BC43754
BD302927
3E018206
3C5880B0
3CCBB34A
BC5FD4BB
BC8DC598
3D054BB1
BD96A266
BC9D0C07
3D3F19EE
BD117187
3C8BF3A6
BDCDA65E
3D621D7A
BD835B35
BB349424
BDF17B89
3E2F8627
3D0A23A2
3D6F207E
3E6E2BC3
3D9574C0
BE61E1EE
3E3E6560
3CA103CB
BD975A37
3D79C327
3CE3D449
BD92A77B
3CE5086F
BC511D74
BDDDFC04
BD055CE8
3DF83831
BD2CB77A
3E0AC115
3E36672E
BDAD3569
BDD4CFC7
3C6164F0
3C0363EC
BD89AA20
3D09AF36
BD443064
BDCAE470
3D242DC6
BD7BAFA2
3D97ECE5
3C7099E2
BD78D4D0
3CD06150
3D656C96
BD3752B0
BD9AC80C
3C89B284
3C934804
3C28E060
3E517928
BCAF00CA
3DF313DE
BD566695
3D87B897
3D80A1FD
BD38F2AF
3D341F36
BE16267E
3E7702B4
BDC4781F
3D86BE50
BDBDF975
3C27A755
BD6C37E6
BD9BF2A1
3E2BD377
3D469A3A
3D506C75
BD9C5D1F
BE293ECF
3BA7D33B
BD81EE21
3D1A9757
3E26C2D8
BD89B04A
3D9DE270
3D0C2876
BDE4AB3B
BD026F41
3CA8EE2E
BE1B240F
3D9F99EF
3DB45F3B
3E04EEF5
BDAB046F
3D216BF6
BCD6056C
3CDCCFAB
BD23CD10
3E2FDEC8
BC8BA9E8
BDA9E4C1
3DBAA4E6
BD4B0E63
BDA06C36
3D896712
3DC8BD26
3CBB8FCF
3D42EE2E
BD172DC1
3C21BBEB
3C8AF19D
3D01D320
BD197C4E
BCCDF3DE
3E7181B0
BDBBC035
3E201812
3E25D78E
BDA089FA
BD9A8431
BD8D4212
3D879925
3D9A0DED
BC51BB48
BD75F5A9
3D7FAE96
3D38BEDF
BDBB0B9C
BD63BD32
3BE80026
BD855416
BDB44084
3CD50418
BDA569D2
BD8A102B
BD707CED
BD6B7E8F
BBC57170
3D8A44AF
BD07B3CA
3E25E62F
3C1BB190
3D0FBD51
3C72F250
BC0AA2B9
3D7C6766
BE153F45
3DC77477
BD9EBE9C
3D05EED4
3D913AA8
BD274FBD
3B716EE0
3CC7047E
3E28B7AD
3BFD2FD6
3DC33EB7
3D2E2CCD
BD14DB16
3D07BB96
3D15C63D
39ADFBD6
3D11E63E
3E08934A
3D60E4F3
3D8C3238
BD1868B0
BBD2AB7C
BAEADFE6
BDA4F8C2
BCD35120
BD58EF70
3DE620A2
3D96FF03
BD1CB1A8
BCB03E58
BB17CBB9
BE0A47F2
3B21B26A
BD3671E2
BCF52952
3E271CE8
3D528B48
BD8ADA10
3CCCC4AE
3D98969C
3D10D725
BD607548
3CE9FFE4
3CAED139
BC3BAB37
3D812A35
3CC51FCD
BCEF685D
3DE14B1D
BDC0A56C
3E36A9FF
3D445EEE
BC8D1416
3BE8DF51
3B008BEC
3D909994
BD126CF2
BD0E9097
3D9C0D6F
BCAB518B
3BBEA400
3DB5E36F
BDAF6A2F
3D27AC10
3CE072D7
BD3B1E3A
BD1680DF
BB91C3B4
3C246F4F
3DA953E1
3CCCAC7F
BD03EA60
3DD600F4
BCF43352
3E24DF81
BD88B2B4
BBACC962
BCA5211D
3D0BC54E
3D80110B
BD21468F
3DCF0397
BC7D091D
BCEDD34E
BDC44A6F
3D03BF0A
3C6EBFF8
BC7EA43F
3E381444
BDC9160F
3D21C8BD
3B9D781D
BD396457
3D4751AE
BD0D09A8
BD162ED3
3D0A3C73
3D53DEC3
3D58D5D4
BC4929CA
3DDF831C
BDC95ED3
3C183976
BDCAEC2E
BD04F34A
BD9FBEC6
3A4AF306
BD2556BF
3D357DEA
BD29483B
BC636366
BDAAF9B7
3CBE775D
BDC0ECA4
BABB8D49
3E2D0567
BDD9392A
3BE86019
3D7139B6
BDBEBF40
3C3D3B48
39DDA62D
BCD11BF5
3D16C95B
BDCD347F
BD4D8C17
3D054598
BD976E05
3D17F4A2
3C66B8A9
BBCC9D12
3DBCB853
3DDE1283
BD63FCA7
3D8F12ED
BBE8131E
3D2D5F46
BD1632BB
BCA1F889
3D09909B
BD54ABEE
3C91AD08
BBA98E49
BD803338
3CB5175F
BDAB11F8
BDC41189
BC4F470B
3D068E15
3D7D4A5E
3D7C7BBF
BD9AC57A
3E16C5FB
BD0E714A
3D8B6AC1
3D0A5F0A
3C3501ED
BD6BD39E
BC9C186F
3D986069
BD89AAC4
3CAEF220
BCF99973
BD9C7B28
BDC8FB83
3D232746
BD1C2A7A
3C1F1481
BCD87013
BDCB1F66
3C81D0E1
BCFBAFAE
3CD0B846
BCE78C5F
BD806E66
3DE74E0A
3DCECF05
3DC41F48
BDA1D2FC
BD8F6CB4
3DDCFBAF
BDB4DE7D
BC4C5C24
3D55691D
BBE223A0
BD1ACE93
3D493E4F
3D9294F6
BD6D92CB
BD821AEF
BD638471
BD5A0A96
BD312DFC
BD3E2593
BC9DB984
BBB434A9
BCA0BD2A
BDE02CAB
BD522018
3DCEFB25
BCD25F92
3CC05E31
BDAA5E50
BD29BBD6
BD68D300
3D8FA9E0
3D1EEC7B
3D63E2A5
BB12829E
3C18BEFD
BD96C427
3DEE5F85
3D931608
3CE165CD
3D807677
BD92A165
BDB34043
3D91D34B
3BFC7A4D
BCFE2ED8
BD76CE8E
3C8A5FD0
3C102715
3D994136
BD25EA5C
BD58A44D
3D435480
3D9EE6F6
BDCB6644
BC969FF8
BDA0F0C6
BC27C7E0
3DB52D82
BD8D8486
BCD3C673
BD6D5477
3CD4D832
BCD344B4
BBC0477A
3D9F9F01
BCFF6874
BCFACC71
3D9CA012
BDEFF5F5
3CE45D03
3D88D914
3CEC72D4
BC8090C4
3CCFFDF7
BD12BAA3
3DC77D4B
3D383D7E
3C056536
3DBF0400
BB167E10
3E1B09A5
BD7AFD0F
3D56D048
3D804F43
3D5A8EE9
BC19A5EC
3BA485A0
BD40F9F0
BD8DB42F
3D0899FE
3E0A7A05
BD231C0C
BCA9083B
3D5E771E
BD7A81C9
3DAECD00
BD606500
3DCE7576
3DC11C7F
3D86493F
BCE8F452
BE0751E8
BCE6AA78
BD851E9F
BD2A8B40
BD26B3AF
BDCBDED2
BCD60E27
BDA56E2D
3BB72FD0
BD10BF36
3D9FC703
BD91A049
3A6AA783
BCD5C8D7
3DB1A978
3DBDE934
3BB7D33D
BDD7BD79
3D1E2D1A
BC7C96F7
3D752C22
BDC287D8
BD819BA0
BDB5D60C
BDC949D8
3C77C098
BC5B9D01
BD71736E
3CC9078C
3D3962F1
3D524F9C
BD85E0EF
BDC6A4F1
3DB15E41
BDB5686D
3CE44388
BD88F0E6
3DA24B6D
3CAE1FEC
3C890A64
BC662820
BD4DC5EE
3C64ACBA
3D0369E2
3D6B5E27
BADF4DE2
BC8BDB27
BDDDE4D0
BD6C3807
3C927918
BD7450BF
BD159173
3DC373DF
3CFA66DD
3E1191E2
3D34AEB0
BD9460D9
3E2FC97A
BC7AB3CC
BD5B16B6
BDB9D47D
3D00918F
BCC94077
BDB173C2
3D47E0C2
3D05471A
BC8ED10F
3BFC6285
BCEE7698
3DEBDAAB
BACEC533
BE187F1B
3BC4A900
BB1E5A7B
3DAFEE36
3D9E2FFC
3DFCD7A8
BD3B8564
BD233D0C
BD56C176
BDA47136
BDB74ADD
3DD7395E
3C5F1481
BD0E424F
BD3E3830
3DB36882
BCFC14DF
BD6383D6
BD97B1D7
BD57EBB8
BDBD9619
3DC4611F
BBBB6A42
BD5F27E2
3DEADFA4
3E0FA033
3D376117
3D556C61
3D427B00
BD6B6523
3B4CC760
BDA4B454
3C7D0FF3
BC009EA1
BAD2C0C0
BD31D315
3DB7C03C
3D2AB3FD
BC49896C
3D681D65
BD18C0A0
BC2268C6
BD7ED736
BD3BD868
3DA48F49
BE816388
3D830464
3A68E397
BCE66548
3D81F21F
BD782107
BDC13B64
3D9389DB
BD4C5194
BDD5525B
BCFBBE51
BD4776E2
3D8E5745
BD53977B
BD9B9772
3D4C2A78
3D2C55B2
3BED5EBD
BC80E038
BCDCAF43
3D981340
3D82F594
3DB0F148
3D60AE1E
BE028597
3D5B49B8
BD96FFA6
BDC30CFF
BD344BA9
3E27A9A3
3D02E749
3D93D921
3D9F802D
3DD6340E
3C73FF37
BE4BDA72
3BA57630
3DF6EDB8
BB0691EA
3DAEBBF2
3DB6A286
BD9F2B65
BD7B9A2D
3DF76852
3D60B9E7
3D134554
3E01B046
3DE9AD2E
3D05BE36
3C537690
3D535640
BDFF1738
BDCC39D4
BB816C17
BDC55882
3D45FAB1
3E3A2C45
3D0BA549
396556D3
BCC02EC6
3D41F424
3DE5DE6B
3D85DF08
3D64F17B
BD40F258
3D9A038F
BD2C9019
BB12FA2E
BD398994
3D70DCC6
3D91BDD0
3D998A2D
BD433FBE
BD51532B
BAB9A163
3D69C796
3D4F1C19
3DB3BC0B
BC92C161
3C104B38
BE717119
BA7644AC
BD886EEA
BD2D6B91
3D2A5BE5
BCDF23AF
3DB35312
3C100EC8
3DD55401
3DB37423
3D962A9F
BD745426
BDA22AC9
BC813677
3D46CB5E
BDA66B3E
BCF05407
BD9D69D5
3DF6EBA2
3D277B25
BD198B9F
3E035A08
3D9044A9
3D8EA0CC
BB76D77A
3D44B949
3DA7F7E5
3D91A3C9
BDBE27E1
3DED1BE5
BDCA24B8
BD14BD52
3D287B9E
3D9A7389
BDFCA556
BE337607
BDA93EB3
3D4301BB
BDBE6A72
BD6064FB
3E469F07
BDB88C0A
3D8AF0FF
BD2FA4E4
3BED6466
BDAF39CA
3DCFA636
3E11C09C
BCC925B9
BC9D2A81
BCDBE6E6
BE09AC0F
BD21A149
3D5CD316
BDA87E53
BDA61B8E
3E1A7E24
BDB51F3D
3DA53F2A
BDA679ED
3E2C6357
3BED5542
BD05F622
BD9635D7
BC56ECC0
3A978F40
3DA41619
3CEE86C9
BCB42D7E
3CD7C024
3C870939
3D740360
BE213B25
BD9E30ED
BD884240
3DB4BDB4
3D850FE0
3D5785F2
BD953762
BCBF2D44
BEC1401B
BD09CCF6
3BBBCD83
3CB53EC4
3D74A741
BCB4DAA9
3B09E117
BC6A5910
BD6AD440
3CAEAE48
3D453091
3CBB11B9
BDBE0234
BD82B742
3D1E8CD2
BDBDB244
BCFE4639
BC892D39
BBBBE4D9
3DB75F82
BD1AF4F5
3E27E871
3E13FEED
3CF41739
BE3EC147
BD0A9C30
3BEA3DD3
BD422A53
BD9BB7B6
3E66CF49
BC9E1DB3
3C9D0DC0
3CBB2710
3E57321F
BCDAE345
BE23B1F4
3C14A220
3C120837
BD9DEEF9
BD094433
3E68ECA9
3DAD413D
BDD045BF
BCF13F88
3CC804C5
BCEB071C
3E2A7E45
3E588F22
BD983640
BD524D09
BD366BE7
BD76823E
3CC88B46
3CC9F5B4
3CD8A5FA
BCAD9DF9
3E575BB5
3CEAFA3A
BC6C162F
3D0B726D
3CF32F2C
3E01AB60
BD9FF78D
BB3DADAA
BD20D657
3D9BF421
39A24111
BB3AB0EE
BD62F97E
3CCAE67C
BDB5B4F8
BDC9F640
BDB4F536
3C6E26CD
BD7C3348
3B06D15C
3D169B26
BDA0B5D8
BD5D221B
3C9A7D0C
BEBCA60F
3DE0364B
3C08226E
3DAAA537
3DC1787C
BD851AFF
3D9678D7
3C49ECB0
B9AEF20C
BD658CDA
BD807569
3CEC29F8
BC9487E3
BE32359A
3D042C22
BD5B425D
3DB27A97
BDA7BBFA
3ACFE8EA
3DB1E167
3DEF895E
3DDD69E2
3BA652C7
3CA07B8E
BD22275E
BD22258F
3D893D91
BC6E64BC
BE1048FB
3E4FB2EB
3D87D9F3
3DAB217C
3D90F649
3E07D5A7
BD862E2E
BE05AF87
BD285991
3BEBBE72
3B3A2085
3D9535E0
3D9B0979
3DBACC89
39B0925F
BDE6841D
BBED8688
BB2AEDB7
3DED1F5E
3DB56EB7
BD1DE8B7
BDC79E22
3D9CF4F3
BE3E8889
3C16189B
BB3AE6C7
BD460B80
3D333433
3E348C7F
BC8C3B1F
BD4B40B3
BDBE6C77
3D8FFC5E
3D642B49
BD68F2F6
3CDE0728
3C83E904
BDA86F18
3C3050F1
BDB85D5F
BD8BA6CD
BD87B357
3D37E388
BCD5D2F5
BD9F0AAD
BDB44869
BCD23400
BD98EFE3
3D305C2D
BD177D03
3DA45D94
3B2B8560
BEDB0008
3DD234AA
BC68CAF5
BD9D72B3
3E513135
BC995099
3D6877FB
BC757750
3CF4D89A
BCBA146D
3C26A0FD
3B1DDEA4
BC57EFEA
BE21ACFA
BD98B4A8
BDAB98B9
3C29D3B6
3D9E21EE
3D207961
BDA5C932
3D869B85
3E01E4A0
BC6D3CD7
3DD37448
BE07749C
BC81713B
3D42B00B
BC97D90B
BE3DBCC1
3DEAB11E
BD949831
3E2803D8
3C9127F4
3E2E27F5
3D04ACD4
BDA33C61
3D92C97D
3C104D50
BD3859D9
3DC5DFFD
3DB046FA
BD989081
3CA8E9FC
3D77A0C1
3DA32D03
BCFB01C6
BD3F28CC
3E045C7B
3D6BEB45
BD815307
BDC55C29
BD5C2030
BD1D2E47
BD5BCFAE
3C3E2779
3C06CC13
3E1BC253
BC991FE4
3C82FC61
BD4EF557
3CAB0E0A
3D9CFEF2
3C139773
BD1CB3FE
BD25AF20
3BA9A800
3CC09CD9
3D9CE704
3CB7B780
3DA3B67B
BC7CECC9
BD5CB61F
BD4AE4FC
3D64F792
BD76F1A7
BD07F03A
BD07603B
BD89196E
3D46B6EC
BD42A066
BEF178FE
BB5A35AF
BB9129FE
BD870E58
3DFE97BF
BA1A4BB8
BD6CB8F5
3DBB9EC3
3DB7C512
3B8C73FF
3D3ACA25
3D6A25FE
BD8082CC
BDF3E7E9
BCA22100
BDA32AF1
BD79DF4A
BD363CD0
3E09AEB7
3D1D8FA1
3DF0EB5F
3E2D4C21
3D7FC4CA
3E1E0760
BE0C43B1
BE305BD1
BD1F8227
BD3913F3
BBFDDAE2
3D3599DB
BDA9D3F3
3E337241
3DA01101
3D7299D4
3CBECF34
BDC6F059
BCDEA160
BCCFAE0B
3CED16DB
3E091794
3D2055BB
BD6314D2
3D68E953
3DA8DB50
BCE9BA00
3DF1503B
3DA556FA
3D42F60B
3DB24107
3D0779A9
3D2F8A12
BE2D2414
3D59962B
BD67934B
3D91A4F8
3DA2FBCE
3E27543F
BD837BE7
BC27D099
3CAA4906
3BD5C540
3DD4F049
3C8C11B3
BDE94D45
3C9167FC
BDB5E824
BD9D9566
BD6A2EDB
3DB1E222
BD0F7F9C
BDA40531
3D3670AB
BC94DE3B
3D5E2EDD
3D2B232B
BCDE4A3C
BDC8B0BA
3D820551
3D96EAD9
BDB025F7
BF028328
BD35D44E
3AB6950A
3D9504D1
3DC59CD7
3D9E9E7E
3DADD567
BC8F77B8
BBD5075A
BE0B710C
3CFD0EF6
3D8F43FD
BD17D9F0
BE20626D
BD3610EE
3CA7F293
BDF74627
BDB252CB
3E853101
3DA2164D
3D6F21FE
3E0B2060
BD144720
3D4E8B2F
BD4BB22E
BDCEA39D
3D31AF63
BD35FA8C
BE113E1D
3DA0521C
3D0F7E66
3D5CE615
3B47ABC0
3D319318
3D5833C2
3D0EC4BB
BD0922B4
BC6FEBBB
3B118DCD
3DB56505
BC859FED
BCA7500C
BD548EE6
3DC44808
BB1344BF
3C86ADAB
BDDD44AC
3E030681
3DE46361
BC1FEF91
B9D30F5D
BCD51A36
BD07A752
3C4C3119
3E1139C4
BD16968C
3DD7A68E
3D64E2B1
3D66FEA8
BDAAB15B
3CED2588
3BE14AB7
BDAE1C2F
BCA91AB4
3D028846
BD372855
3C83A79E
3D1D6C7F
3DA36440
BD33EA54
3CA16DE0
BDB7E5B7
BD8D2190
BD5E1A19
3D89AE1F
BC80F673
3D605BBB
BD8009E8
BC5FBA14
3CD43F98
BF17030A
BCC49C74
3D52D94A
BD46527B
3D0AFA52
BB934958
3DAC3DDA
BDAB6914
3CF43932
BD9DB482
3D98A1B1
3E4AF630
BD7A5FB2
BD549BC6
BA902D80
BD18A5DC
BC9AC566
BD48AAA8
3E39BDB8
3DB61042
3CAAFD8C
3C5AB242
BDB60F31
3DAC569D
3C7D9710
BD17276B
3D6832DB
3D31DF3A
3E05D7BE
BDCCB07D
3D8F8E09
3DD729F6
BC7BC408
BD8BD0DB
3E031E93
3E007BF5
3D00532A
BE4EDA6D
3D88A2C1
BD2AECBD
BD558117
3B95E590
BD32BC7B
3D52AA5E
3E529CB4
3D802B22
BD52DB07
BD817DA8
3E248A39
BD118AB7
BBF5DD58
BC45C1BB
BD431F85
BDA16CF7
3C73EBDD
3BDFAA70
BD73DAB5
BDC23544
3D5EAFAF
BDAD84AC
BE361F98
BDD9E4E4
BCD95020
3C1E8EAC
BD255C11
3CACA7A8
BC73EC7F
3D0DCC4D
BD250BEC
3D89BF71
3CD74CA8
BCECAECB
BD850870
3D4D6F17
3C88FE6F
BD6CDDBA
BD75A713
3DB61389
3DACC5EB
3CBB4968
BEC5C613
BDA6B101
3E1F16DC
3DAB19AB
BE7E0D74
BD11D6B8
3DA9CC56
3D7512DE
3D048027
BD35A1D5
3B94DA92
3EB95E6D
3B35BFE5
3D8DEE53
3D884609
BD306522
BE397C37
BD87A628
3E8A7B2C
3D36D17A
BE3DA4E7
3DDEF915
BE2D73FB
3D546400
BC2397DA
BDDA7314
BDB9C484
BD914AC4
3DD1D6BE
BE7CDFE2
BD629C68
3D9DE6CD
BDB060F0
BDF85CE3
3E8E717F
3E3B2219
3D04CFC2
BE32D220
BC0F59F0
BC97D66E
BE14983E
3C5438A0
3DAE1205
3E2EDB69
3E27FDB5
BAFD2278
3D771D94
BDAC38FB
3E1F0D0D
3C6FEB04
BD5F3123
3D847CF9
3C989555
BDC1B94A
BD9318A0
BDC3036C
BC34E6A4
BD8BF939
3E257B90
BDE96B52
BE94E21A
BDCF3826
3C213376
BDEAEE0D
3D395C36
3D95B83B
BD2D6A32
BAEA6043
BDA2302F
3C69A268
BD8EE825
BD84FC06
BDB3115D
3DA66ABC
3DB25DEC
BD4ED01B
3C988EF0
3D9A3519
BD9527E5
BD8E07FF
BE845DF0
BE5994E6
3E4DE978
BD906D75
BE8B5CD4
BCF3D358
39FB87CC
BD3130E6
BCA3E12F
3D6B1CA2
3D565243
3EBA52B2
3C79F1F7
3DC425DC
3BD923F0
3D691F45
BDEB28CC
3D0A638D
3E3B3A1F
3DA05AE3
BE0902D4
BE5AF666
BD77BB26
BE25EDEB
3D9BF54C
BC9FD2A8
BD0B7D3C
BD8E864E
BD46401E
BD46BE47
3D59EC8C
BDFA6E1B
3D8417C7
BD9BA0B9
3E307A82
3D255DC2
3D6AB732
3C85348B
BDB89A9D
BDF72EA5
3D5D6345
BCB1589C
BD918890
3CC73CCA
3CF1C4CE
BDB195C5
3E40FA44
BD2F02DE
BC160CF7
BDC18407
3CF43425
3D4CCBFA
3D18C2CB
BD36D0ED
BDAF8A04
3DA8516D
3D551945
3DA5C038
BCE62481
3DF66D56
3D0BA6BD
3D6D2979
BD00F61B
3E23BE5C
BC848D68
BCFCE630
3D4A1100
BD246E18
BDA9CF88
BC89E968
3D003531
BDA13C84
3D18FC3C
BBC584EA
3CCA5C4A
BC311966
BD99DD0A
BC82A2FC
BDB0A8BE
3DBAD117
BD768AAC
BD1F223F
3E20D0B9
3D7E1C4A
3D39BA97
3D21906D
3CBD0849
3C0955D0
BDF45E64
3E8CA32F
BD90ECCD
3D9C4A5A
3DA1FA1D
3E693F98
BDA1D45C
BD917029
3D6BE88E
3CD6A634
BD24B61A
B95F36ED
3C9768F5
BC7FB213
BC308223
3D67780A
BB917AF6
BDC54639
BD30A650
3D1AB21D
BDCA4F0A
BCF74D1B
BD321480
3D46CE0C
3C8AF640
BDBC043D
3DA3AA24
BBBFC852
3D8284FB
BDC35447
3D17FB2A
BD1DB71A
BB1FB82E
3DC2B4E1
BC3D5E8C
BD1AD68B
3CA9C65A
BD82B393
3DDC6333
BDD74E92
BD7F92DB
3D59DD0B
3CB0157A
BD30A40E
3DAABE23
BD44BC33
BD2E9811
3D66CF27
3CA60523
BB19F03B
3E13690A
BDBA1788
BD676887
BB51C56C
BDC1FF35
3E2974A1
3DB94019
3D6A9E7A
3D126353
3C2F00E3
3D9DC47E
3BD42FA0
3C965066
3CCC0FAA
BDAF03F6
3D4F974E
BCD51CA4
3CD585DC
BD0E425D
3B0062E0
3D36B273
BDADB1A8
BCC4A015
3D9EA4A0
3DA51D24
BD856B1C
BD6F18CB
BD4B20B9
BDB6212C
3CC8FCC8
BD163520
3DD92BA8
BC9ECE67
3D275469
BD9CB8D0
3D39E634
BD0E1DBB
BD0D679A
3DB8B0E7
3DA5E9F7
BDF1CB53
3B82DDB7
3DF7EE24
3D2891D7
3D02AF4D
3DE1FF02
BDF08FE2
3B80E676
BC85D0B7
BD929829
BDEC646F
BD42E825
BDB3ECF9
3D8D2A70
3CFCC044
3E30F988
BCFEA89B
BCA443F9
3D1004E2
BBAB56E4
BD866C22
3CCCB053
3D845427
BD399060
BDC4B44C
BD58CADC
3DB22451
3D1C26D0
3D301A5D
3BEADEEC
3C6CCCD7
BD62922D
3CF82DB5
BD13106C
3D5B781F
BD9C5BBB
3DBA2B05
3D9865C1
BCB34274
3D8EA2B1
3DA186C9
BCCC4442
BDF5EBBC
3D7E9DDC
3C00F90E
3CA953D9
3D9FDA19
3AA3D040
BACF15CD
BAF12396
3D0D4104
BD222199
3DB69389
BD571B9A
BDB7A8B4
3D4F1AAC
3A3AE246
BD28FEE2
3D016A2E
3DAB7BAF
BD25804A
3C086BF8
3D912C1D
BC9AA29E
3E013112
BCE689D0
BC3F7602
BDB86F71
BCF61439
3C529A50
3DC88FD8
3C5D2AD0
BD6D869E
BDCC909B
BD1E835D
BE1B9955
3DBC1AC1
BD7B10E8
BD4C4139
BD41EE17
3D1413B6
BCB8DF8B
3E0BD980
3E7F3794
BD5B62CB
BDD7A94C
BDA9D38D
BD844A51
BCBD9B5C
BBDD8501
BE6C5A99
3E5C774B
BC777791
3DC827AB
3D8A61A9
3E5BCD46
BD9B6C14
BE0C2D66
BD120654
3E0D5091
3BD5D2BD
3CE2FF8D
3E45DC06
3CCFCD78
BD2568B9
BC3B85A5
BC9566E8
3DDE4287
3DB92786
3E935BDA
BE0B361A
BD624803
3D92CFF9
BE8ACCC7
BDB15790
BD0A240D
3E0957C7
BD5D1D4A
3E467A40
3CE2D1BC
3D7D131D
BDA5118B
BD9A8843
3D9B7C3D
3D0A1C34
BE1C8DF0
BD11DCFD
BC21FCF0
3D108858
BC7A6DF4
BDA7E709
3D2DC47E
BCEBB2A2
BD9F34A1
BE180697
BCF6AA13
3CB94210
3DB130BD
BCBDE876
BDA31242
BC4097E7
BCD12810
BD512357
BD21D850
3DEF5A48
BD99C241
3E2C91A5
3C91A4DF
BDA5BF34
3DC247BB
BD04D6B7
BDDEE0CB
BDA4FAB4
BD60FBA5
BD6AB770
BE2961D7
BBB96830
3D87E46B
3D1BE1AA
3C350CFD
BCDE6B16
BD668CC4
3E247889
3E6E7140
BC81A092
BC133CAC
BDD7DB50
BDA313D6
BD6B7F14
BD260405
BDBA2D89
3E268C23
3D3345EC
3E2F5715
BC6E4498
3E5036B1
BDC33B85
BE52A2B2
3D3BE972
3DDA450B
BDBACAF1
3D024DB5
3E1DC71C
3C208560
BDCF5CE8
BE0CA902
BD9BBDFB
3E3BFCFE
3D83A0FD
3E597CB1
3C016CA9
BCC20013
3DAC427E
BE1716A9
3D8E648B
3D6A180A
3D92EC17
BD6E4660
3B38EC28
BD9BE912
BCFBE699
BE13F4B8
3D1C2544
3DF10606
3D9AD84F
BE56A345
BD4F9B13
BD68AFF1
BC85DD51
3B1A12EB
3DABC427
3DAB0B17
BB976411
3CBA41D6
BDF5FDD8
BD7221B3
BBE301D0
BD997BDC
3D08B78D
BDA190CB
BD386F78
3D7071C2
BD338095
BD4CEEFC
3E05082A
3CD69970
3E157513
3D9CAC0F
3D4CF89A
3D2D0D0E
3DF369C0
BDBCED2C
3C63A2EA
BD6092AA
3DAD593E
BD615CA4
BDBFD439
3CFABD84
BD3C6B0E
BD143725
BCBF944C
3DA9FD29
3DD3A54F
3E501B30
3D103371
3D21DC18
BE34C507
BE0D6CAA
3D63BF7D
3D820EEA
BE0E126C
3E0209DE
BCD2A2F7
3DC13D4B
3DB8DB9F
3E575F35
BE11675A
BDE608CE
BCA891BC
3CED383D
3D5FFF39
3D44B66D
3D7B85B1
BDBD5DD0
BDBECA8D
BD443F88
3D74AAF8
3E137B67
3DB5570C
3E7FA5A8
BE1A7B19
3D8B5285
BD7453C1
BE4D87D6
BD4A0C5A
BD0C3531
3E10E7EE
BD9FF98F
BBB0359F
BA7820D5
BE195041
BDAA4F24
3E1B1A8A
3D6E947E
3D3FD45A
BE70BDA2
BC9C6ED4
BC8E83FC
BD7B32B7
BDCAAF30
BD58B83E
BDB9C83D
BB6A686A
BC4BAE13
BCE41186
BD735D04
BD6812BD
BCA5975D
3DAED02D
3B83F920
3D96DB87
3D9F13F1
BC572225
3DAB9062
3C52EBA8
BCB607A8
3D8779CD
BDA36427
3DA3CFA2
BDB2E054
3C5D2F3E
BDAAAF76
BD4C8487
3D090A7D
3DBAE506
BDE8E4B7
BBF2A2F0
3CD8A0EF
BD1DB899
BCE67782
BD5A954B
BDB5FFA8
3DA8630A
3DEF551C
3CD91101
BDDE6CC3
BE1C3CD5
BDF59CC2
BD27B86F
3C4704F9
BDBFD31E
3DBA40FB
3D8F1A5A
3DF82278
BCBC39E0
3E886D3B
BD3B6B8F
BDD88D0E
BDC2B202
3DFC7094
BDB4F3C8
3E0CE61C
3E075255
BCBEC334
3DABA231
BD24ACC1
BCAAB233
3DFCA70A
3D8A18BB
3E315746
BE0971F7
BCA88406
3CC17269
BD5C5023
3C99690B
3C31F18B
BC7F3DA5
BBBB702D
3E2000DC
3D778415
BE1519B2
3CB67A6C
3D643B6A
3CE6CB32
BD923579
BE843356
BCE000A8
3D72F1A6
3C9CD2EB
BD8ABD64
BD4013F6
3DB2DE5D
3C79264A
3D6AF4A3
BE361B35
3CEF2B6D
BD072DCB
3DA1EEA6
BBF95C7E
BD86D2AA
3D9F89D1
BA774000
3D215D5A
3C11F0BA
BBB2FDD3
3D257FA6
3E6F3DBF
3C24B9BE
3CE8EBB9
BD86A691
BC163AC4
BDC37EBA
3B951CFF
BC396514
B720B934
BD9FF248
3DA47889
BDC89051
3DC3BAD1
3B8F8519
BDF7B1DE
3C2C9191
BD38D886
3E1782A5
3E018A54
BDD6A4CD
BBCBE466
BDA572A9
BCDC6067
3C305B6B
BE13A162
3DDB895E
3D832B6C
3D88D5BA
3CBCB72C
3E012305
BDE3A2CF
BDCF1305
BD66ADE5
3D2B4167
BD109AB6
BCBD7DE9
3E7AE700
3DABA465
3D8535CA
BC777EDD
BD9AA8C4
BD0E5065
3DCC17FB
3E0C3B4A
BC8E7C99
3AB5E232
BC9C2843
BE566AB1
3D02E1CD
BD940084
BC916072
BD2A759E
3E4788F8
BD87DB17
3CE6F0B3
3C1DDADC
BD14E0E4
3E0AC2A8
BD9366D9
BDF4D142
BD9270E7
3DA8D95F
BC8FCB77
BD9A1929
BCC69AEE
BCEFB3B0
BCC69E96
BD0F9E79
BDA3290A
3DB696D2
BDB94349
BD731F7D
BDC96370
3D0F59EE
BDAD8B20
3D49B21A
3D81E192
3D5FA2F7
3DB8B677
3CC358A0
3E5DD3A2
3CBED8BD
3D1D168A
BD9A941B
3CB20D51
3CB034FB
3D09FE5E
3E27A469
3AB650A4
BE0121EF
3D49EB7E
BD90D3CF
3D1A8270
BDA1E843
BD11FAA5
BAFC7337
3C948733
3E6457AE
BC8603C3
BD76E663
BD0A77AD
3C5BCD56
BDA2701E
BD4802E1
BE5D2A88
3E16B037
BC7A5E49
BD3AC356
BD7C51B6
3E6BDFC5
BBB1F971
BE29D26D
3D1EEC3E
3D83D3C2
3D893650
BD590345
3DF78352
BD8C488A
3C4CBE80
BBF4E41C
BD86B732
BC50183F
3E144163
3E3017B7
BDB30E87
3D475BA3
3CD6474F
BD8DE754
BDC9C9D5
3C699688
3CD94D1F
3D895C24
3E6ACF8D
3D938FF7
BD75166E
3C439342
BC27635A
3D976B21
BD86EDDB
BE40F8AE
3D4EA576
BDBDB8EE
3DA832A1
3D155E92
BAF6AE81
3D7D8A22
BDC5DDF9
3D2CED72
BE17FD57
3D082822
BC3507AA
3D7E7BA0
3DA0DA89
BD37D790
3D794014
BD05C202
BD07093F
3D266D07
3D329820
3D055316
3E529B07
BD5D481E
BCEFBB7D
BC7996D8
BCBD4808
BBC22D68
3DB55588
3D8BC8BB
3DA2EFAA
BDB1F79F
BD4C4F27
3D9A6F74
3D71F8A3
BD92692B
BCFB26AE
3D8C0B41
3CE01A65
3E3E9433
3C019BBF
BD35843E
BDAA5F73
3D116CE2
BD83CCB3
3D01CA75
BB90253E
3DE0A785
BD875756
BC236F21
BD61FC70
3E05AB50
BC5DA4ED
BE2F48A9
BC7E8A50
BCBB43D3
3CF721B6
3D17E5E5
3E0135BD
3D8A8577
3C839353
3DA591D4
BD8F545E
BD5E9D20
3CFB0D69
3DAAE879
3CDB75E9
BD0491CF
3D2DB463
BDAB6DE0
BDCEF1FB
3D0F1EE0
3CF042DC
3D173A3C
3DE88A5B
3DB34A62
3D532D90
3DA5D63B
BD1C3313
3C935900
3CA87600
BE138C98
3D99AE47
3D687B4A
3D00ED25
BD4FD6E4
B91EC458
BD51E55F
BD475847
3D919493
BE055020
3BFE831F
BD9C7F8C
3CAE788B
3D5DEDA2
BC8473C8
BBCD39EA
BD07398C
BD5A6D26
3CDD399D
3E54A749
BC6EEE70
3E1EDAA6
3BC83624
3DB1BCAF
BD6B2E0D
BDAF9183
BDBF7561
BD9C3A05
3E100017
BD99CD7E
3C1CF1D4
BC32DA60
3C16D68F
3DD9C7C8
BD8A08DE
BC0E229F
BAC42AF8
BD9AE0AD
3E2163AC
3D7D88EE
BC9991CF
3B9D790A
BC9969DD
3D965DDA
3BEA5C92
BDAECD58
BCD2EA4F
BDAD674E
BD99F1CF
3D121AA6
3BE95080
BB7026BC
BCE86D06
BD8D3D98
BCA6516C
3D2BEEF5
3C7A860C
3E2210A9
BBED4F90
3D873AD8
3DF1AA12
BDB72FBD
3D0821CC
3DAACC19
3C99DF32
BD37275A
3D8CDE32
3D4F4747
3D0D647D
3D9255B2
BC6400DD
BDA36F69
BD793B83
3E352871
3DADFD40
3D574DA6
3D5C2D03
3DEBEFBF
3B6165BB
BD9B6265
BCBCCFA7
3C44E2A0
BDBB0528
3D7985DD
BD801532
BD4C222D
3DB6EE2F
3CCA4519
BCA91437
BD8A9271
3D0D5751
BBC1D0FE
BC48227D
3C52DD63
3C9D02D4
3D5FB283
BD896EE4
BD6A2601
BDDA53D5
3D636CF1
BDA9233A
3D5ACD0E
BC777659
3C95F242
BD1CEF8F
BD76281A
3CBB2FB8
BA84CC29
3DA33775
3D56FBC9
BDE1B397
BDBBDFC2
3D54599D
BC3E81ED
3D683DF6
BD19BBBB
BD8BBF6C
BDA1EEF4
3D376A88
BD53BCFB
3D5ECDE9
3DB0B270
3D0B5D57
BB686D81
3D569595
BBB74F53
BD59E1A9
3D0ABF71
BD8BF469
3C923000
3D8143F2
3C3E241B
3D055251
3D64A356
BD1DE87B
3D7B0BDE
3D8EF943
3D0EA203
BB273AC0
3D222576
3CE8A5D1
BD73B184
BD1A3B20
BD27ACCB
3DC38E2E
3D2FB8EE
BCBDC248
BC97441F
BC28A736
BD28A6E1
BD103633
BDABE304
BD2B728F
3DFCEAF9
BD3929FE
3CC2D845
3DBF8FE5
39460338
BD276312
3DB21CA1
BBDF5438
3C68AED0
3D9EEA65
BD10C45D
BC9A9408
BC85C35D
3CE2BCF4
3D14AC54
3B992E5F
BD1B3441
BD1DE9A9
BD6A6BD0
3CC47169
BD1F8097
BAEDCD80
3D3F50B1
3B82D6C0
BE078FB8
BE01BE10
3E1D1D23
3C99D85C
BC0DA51D
3DB032C6
3D1B8D8A
BD8DAB5C
3DB77B96
BD4DD064
BCBDDDA4
3DE37D0A
BCF9E1FC
BDF3477C
3DA38289
3DB2BAB4
BC8EE961
3D92B932
3DACE20F
BB784F96
BD20EFAF
BCD32910
BDD3E34A
3DBC961D
3D544498
3D9329EA
BCC05342
3D7AECE9
3D056FAB
BCB46457
BDAF32CC
BDBEB368
BD56C1CC
3CDA548C
BD08DA4E
BC1E42A9
BD2F9E0E
3BDCDB37
3D8E33F0
BC927D81
3D4D10CB
3D67552A
3D87FC91
3DC3F0FF
BD1D874B
BC8F528F
3CD73582
BD307A24
3C1CBAC3
BD3DCAC7
BCEDCA38
3C71DA08
3D6E1B18
3CF379F3
BD7D049B
BD33151F
3E1C37CF
BD295084
3CD89A32
3E28730F
BCCAEA30
BDC53390
BADA7A02
3DD27132
BDA7B68A
3DA2EEC7
BD1DA3C9
3D2F5CC2
3BF782EA
3DB79D6D
BB2F518B
3D16E09E
3CFB7542
3D943C1D
3C780B1C
3D9FF529
3D3DC437
3D723E0A
3BBBA3CC
BD255596
BD586129
BE0B0187
3E2E4B67
BD83A6A4
3D5857DA
3D685C75
BA958648
3DC2B7BB
BDD4AFA8
3DAD379A
BD6160B0
BD11A760
3D428CD1
BDCD95C9
BDA4D7EC
BD5BB920
3CE58455
3D504CFE
3C5BCA69
BD9ED4BE
BE217B84
3C61E2B9
BDFD92F2
BCFF2AA8
3C9E4D07
3C9ED20A
BDCB6125
3D234899
BDB8C56E
BD85F794
BD84773F
3D19C872
3C5E4FC0
3D9D772C
3E17B060
3DB0E4A4
3D7E251E
BD82482E
BD7B618F
BE3D74CC
BCE01360
BD89EFF1
3D23A8E6
3DD674BC
3CC51B3B
BDD9CA33
3D851AF6
3D96A6CE
3DB2966B
BDB08AF6
3D353363
3D71BCFF
3D076294
3D6A12CA
BDE34F5B
3CE9A6E4
3E031936
BC2E9534
3E4BF791
3DB7792C
3CD1C724
BD9F55A5
3B7232CD
3E0E60DD
BD8B0935
BDBCF6EE
BB3832B4
3C95E04C
BD75D36D
BDAB0DBC
BDB3D27E
BDBAD12A
BDBAE156
3DB69165
3D8E71B8
BD776804
BD9A0B77
3DACA4CD
3C9EBACB
BD8185B7
3B921022
BDBA0711
3E4C8354
BD751D8D
3DA2FE75
BDB31BEB
BD8D9DE6
BD08752C
BDD9618D
3D7CAF83
3B47C1D9
3E109822
3D84F79E
3C9BAF74
3D160902
BD8304F4
3E448213
BC7B940A
3DDA761B
BC9DA622
BDE2F0D3
3E23056E
3C2DDAFD
BD1A784D
3DD2EE35
B9D53BE1
BCACE27F
BD0A0F28
BE06848B
3C159C34
3C381718
3C877662
BDB205F7
3CF0EEF4
3DB3795A
3DC5C20E
BD636B03
BDEBC322
BCAA0FDA
BE303C5F
3D295C34
BD85B179
3CAF664D
3E548509
BD1545B7
BD39073D
3CF087BF
BCCBE651
BD1609D0
3DA483DE
BC84120D
3CAFECEB
3D0F178F
3B3A46BF
BE4CF8EB
BD776D89
3E86F87F
3B46387F
3E0F0C77
3E233B6D
3D249FAB
BD8F87CA
BCA31529
3B47D28B
BD53A78F
BCF31CCC
3D399999
BD957897
3DA604E0
BD590395
BD9633B8
BD2346FB
BD70F9DE
3CAFBEF2
BDADAA54
BD8E09FC
BD82CE58
3D1AA522
3D9C6CE5
BC11F1D8
3D5FEF53
BE1AED32
3DCD6368
3D1834C2
3D18F627
BD9E36A5
3D70DAE2
BC8F5B74
BE569B46
3DDE6117
BC56C87C
BC83B364
3D91FCF7
BBB5DB22
3CF07248
39B2DBFC
3DD7C4F6
3C712303
3DF1B0AC
BD932C76
BE597EB7
3DDE1CA7
BB4C0A77
BC536C87
BC35DC0D
BD0AC166
BD8B8C31
3D260EF4
BD9F677E
BCEEE058
BC730176
BCD94BAC
BC238BC0
BCCF49F5
3DEF0F70
BD4436FB
BC72A3E8
BE4EFAD6
BC595E5A
BDBABF48
3E3F8393
BDAFAF0A
3B06A63F
3E247B68
3E044B06
BDA883CD
3DD5C843
3DEEA38C
BDB6D2EC
BDC3DC27
BD9BD223
3B8896AB
3C1B9065
BC43FD8C
BDF6D3EF
3BE66236
3E49478D
BD561168
3E26C426
3E4B5CBD
BDABB5CA
BD3C4B0E
3CFD8378
3DC26A13
BD9D572E
BDB10436
BCF45D27
BA20ADE4
BD2DA687
3D954945
BD217219
3C4C1525
BE385844
BD8BB89B
BD42DC67
3D84CF47
BD435249
BD242D48
BD07E82E
3C0D35D8
3DB64E42
BE00D798
3E5DAE89
3D48EA66
3DA9E447
3CCFC648
3D8EF701
BCE57050
BE3942A4
3D6FD0BF
3D1DBD39
3B0C2C75
39E7E59D
3DA7E059
3C7662C0
BDAC0FEF
3E13B0F9
3A9DCBD6
3D52DC23
3D5141A3
BE415AFF
3E18C66A
BE015787
3C5D11BA
3D9009F0
BD32FE4F
BD82AEE7
3DB5248F
BDA6864F
BC986AF3
BDA49069
BD6209F1
BB872730
3D287EAF
3D85A927
BD4723E1
3C6B80C8
BE2BC408
BD9926C2
BE348887
3DEA01BE
3D392692
3CC58EED
3E82BBC7
3D766F20
BE4C39D3
3DF87E6D
3E02DFA8
3D8552B7
BC2FB94F
BD860804
BD8C6034
BDACE7C3
BD96D044
BD9392FC
3D63D165
3E3F1E83
3D3DD3B2
3E3260D2
3DD403D0
3B62FF90
BD65656F
3DB120CD
BD0D1D74
3D388C6E
3D793D3E
3D9BDEAA
3D675860
BCD04F43
3D9FA5B3
BD0B679D
3CA0A24A
BDA14A93
BDCDAAEF
3DA9F0CE
BD26D097
BC36E00F
BD963BCB
3D88E99D
3DBCBBA5
3D0C8FBE
BDD13CF1
3DD1ED5D
3CDF6CC0
3D6A0367
BD842CA2
BD697DA4
3D4935F2
BE4CF35A
3DC35D24
BC85F8F6
BD52E654
3D06E3DD
3D960D12
BDB767DC
BD5A5876
3DEDEC77
3DA4EC4E
3E06CC2C
3D7AF138
BE263C3D
3C8999C8
BB8F7065
BD1BA91B
3D9EF144
BD89FFD2
3D882016
BD806C86
BB06D279
BD2B972D
BD1F75EE
BD86AF92
3C601E88
3D916C27
3E21E2DD
BCC6DE47
3DAC1E0D
BE3907DB
3D66E4C8
BDC9E404
3D9066C5
3DA028FD
3D6E8404
3E45B9A3
3DBA4428
BDCC8FC3
3DF3C6A3
BD74E99C
BB75C179
3D345FEA
B8FC83D5
BC3CC0F0
3C221DA2
3D6C820F
BCB9D047
BD0845FB
3E863633
3D9EC201
3E252B87
3D5A4A96
3D2994E8
BE1CFE28
BDA7CE9B
3CF042BC
3CC8F4CC
BD49353A
BD00EFF8
3DB60934
BD9FDAF7
3D0119B6
3C9C458E
BD83C278
BE017A59
3D34C55C
BCF7162C
BB7C9BB2
BD964556
BD156A5F
BD12A4A8
BDA21B03
3E1EE55E
BE2A9C52
3E0F679C
3C0BEAA8
3E031873
3DC8C22C
BDC21C43
3D71AEBA
BDDA097D
3E2DAFEE
BC1D8B64
3D1907D7
BDC280B4
3D33E3A1
3D9C2601
BD36CBE2
3DCC687C
3C243D72
3E49B2A4
3D091002
BE3E929D
3E237394
BD650C61
BC5EF283
3D0D1814
39FEEE2F
BDB59782
3D54E142
BDD04912
3B861622
BD51EE35
3D2BFE15
3DB42B9D
3C8B8817
3D89357C
3DB0ECE3
3CF1D1B4
BE09BB23
3D0B24C9
3AC30CED
3E23D53C
BDB5A159
BDCEA7D0
3DA32A32
3C941F33
BD8CF8C1
BA7FA31C
3DB59A35
3C28353D
3D83A5BD
3D5206D9
3D834D5A
BCBD9B09
3DB355DB
BC0F655A
3BC762ED
3E6737F7
BD7F89A9
3E55481D
3DC09D75
3CDC718C
BD824B03
BC81A779
BD1DB8FD
BB65AB00
BB01E8A0
BD799F4A
BD86C0F7
BDCBBB48
3DBC0867
3D09D2BB
3D01A23C
BE1C33F4
3BD4910A
3DB1032B
BDA1B700
BC56818E
3D5AA7D6
BD2DEFBD
BC2A0350
3DEFA795
BD8E51CD
3D744395
3D631F2E
3DBD10CD
BC06EE6E
BD0B8091
BD08E5B0
BCD0F743
3E32CEE6
BD147859
BDF53C2B
BD33AEB4
3D93834B
BD62DE48
BC901247
3D718F04
BD6CD400
3E3F83FE
BBB26299
BE3AF0EB
3DC27D4F
3D82165D
3D956151
3DC63ABF
3D1108C2
B7F4E50D
3C5F8863
3D6DAFB1
3D708285
BD8A4ED0
BDDAD5B3
BDB0D882
BC5F7EC0
3CC95225
BDC60028
3D6FCEBE
BD5B5AEA
BD607321
BDE3EF6D
3E012F49
BDA2CACE
3D4B9539
3CA53FA1
BD03A64A
BE28B527
BD8E70F4
3D8EAB9E
3D656783
BCDF115E
3C558851
3DAA2BA6
3DAFDAA8
3D78AE4E
3D4710AE
3D7B774E
3E1FE89A
3C4E4510
3D3D43A9
3DF7674F
3DB3DA8D
BD5B0CCF
3D4AA7B4
3C248029
BA512800
3A675800
BB4A5EBE
3D340920
BD282149
3DACFBFF
BC824F94
BDC2A4A3
BD760A21
3CBDDCFB
BD91C395
3C61786A
BD16D50A
BDB7E0F6
3DADE694
3D44478A
BD349ACA
3D1218D9
3E177313
BCFF9138
BD20162C
BD93C2CB
BCAF3A94
BBB92D20
BC5AE063
3DF469EC
BD80420D
3BA510E8
3DAE383A
BDB90276
3D8045A1
BCCB6FC6
3C909677
3DA81DE6
3E3362E3
3D0B2137
BE088FB9
3D2BD19E
BDAEBEAD
BB57F85A
3DCD27F1
3DF7C467
3D0CE4C9
BC8DC7D0
BD9A9F29
BD8EF09C
BD93A486
3D3E0F49
BD8E98C4
3C887134
BC8E7F92
B80EEED6
3C9F5644
BCD5FD2E
BD9CBAB1
BD6C9BE1
3C60D621
BCBB8A58
BD58A77B
3E40CD3D
BCCF83B5
3CA44D16
3DCC970D
3DBA30F4
BB8E0E84
3D2F1987
BD3F9159
BDC4EE3E
BD65ED2E
3D562A38
3BB188AB
3D98028F
3E297B75
3D7FAF3F
3D9E7A85
3DC7390C
BD4928D5
3D19D62B
3D9B9A06
3C49DE32
BCA8C940
BCD708D0
BD6CE2EF
3CED8E40
BDC74D72
BDB1AC67
3D97B1E6
B8ABB6F6
3D47C9CD
BD76F95C
3D1E158E
BB28A40F
3DACA377
BD511D47
3D97C6A3
3CD74C84
BDF465FD
3D706F9E
BC725EE0
3CE38808
3D196F6C
3D048400
3D4B7846
BD6A064C
BD495781
BD16A19E
BD5C97B6
BE1C3EAB
BDC976DB
BBD22344
BD0132AA
3B2D0BA9
3E1FC8E3
3D981CC4
3D3EB718
BD72B9C0
BD1E3725
3E1BDB3F
BB86DD03
3DCBE2B2
3D465F37
BCE17E53
3C26345D
3CD3AE20
BDAA2C81
BD383B2A
BBE217EF
BD748C72
BD5DE3E1
3DC18869
3D0A2505
BDA05C50
BD9E56A6
3CA07511
BD9C4FD8
BD4FED49
3C459827
3D87AB79
BBCD96DC
3E2E8F9F
BD52EA5B
BDEBF619
3DD628CF
39DAB6F1
3D3CC4CF
BD738135
BCC21509
3D092449
BC83513D
BC3C9F1C
BC2F63D4
BD7D82F0
3D151574
BC24DF39
3CE90415
3D59F7D9
3C71E7F6
3D4A1C78
BDC960A8
BD8C74E7
BD099FC0
3D8BA5A9
BD83B2EB
BD284B47
BDC797CD
3D6CC4DE
3D1AC95F
BD23F814
BD9F13BA
BD9F7667
3CE705BA
BD845634
BDCA253B
BD53E771
3D82006C
3D6FB4B6
BD5E4C8E
BD9C2399
BCA18CAA
3D9E5793
3E2F551A
3DB967FC
BD98809E
BD4BFF02
3D52E6F5
3D6B8159
3D35944C
BCE1C546
BCFF55AD
3CB07E95
3DA799EB
BDC12F44
3D3E6888
3C9F38B7
3DC0BB08
3DA37687
BDC8BC1C
3E38475E
3D0E13FF
BD5A7EB6
3C3A251E
BDABA0E0
BB33957F
BC00DBF0
BDEEE5D3
3E25193A
3D9A1BC6
3D970903
3D9D5C1B
3DBA782E
3CBAC970
BDE3F581
3D8D5411
3D990B8F
3CA4D2A5
3C735354
3E152212
BD9A9816
3D9D4F56
3DF498BF
BD758EEB
BE0606F2
BD606F30
3DDBBA88
3D877F94
BD6AA509
3C6C3A8A
BE2646A3
BDCE51C4
BD9F99CF
BD45A50E
3CABDFE4
3E1D9B34
3D3D0039
3C02DFA1
3E0E3428
BD380466
BC918998
BBEFAB53
3CB41618
3D9F3F9B
3BAF1E30
3ABE5B9F
3D2EBC77
3D98CEC0
BD7435EC
BD1A9889
BC4E1A86
3C9B694E
BD2EC2CF
3C308727
BCF2C656
3DA0D912
3DA774A5
3D49CDA3
BD174CC9
BE47A1A0
BDDC943E
3DE9EDC8
BD554061
3D00CC29
BC79A5AD
BDACB791
BC84E65C
BDCCD6CF
BD90A21E
BD5D1854
BD0F4C04
BD9842A4
BE09668E
BD894B10
BC47A711
3E0E93FA
BDC04373
3DD930F4
BCDE5A12
BD16EB61
3E757C59
3D123C34
BD18DB07
BE0D718D
BDA8CA03
3DA56E74
BD98E118
BD932024
3E46EF7C
BBAF21F0
3D9A51D6
BDBAFA5C
3DED30C4
3C64EE23
BD2B4AB7
BC6CC680
3BB3A9FB
3D94956F
BDB72174
3E198623
3D13EADA
BCF480FC
BC605E33
3D53374C
BDCFB71D
3C4BC481
3DFCFBFD
3CB35E87
3D84D136
BD557C86
BDC98E56
3D02B00B
3CE14590
BDBD775C
3D27D13A
3E83773A
BD33BFE0
3C839D97
BD388A74
3D9775ED
BCBAF705
3CC057F5
3D4CBE43
BCAD86A0
BDAF8C6C
BD228071
BD9AD6E9
BD339BFC
3D97889F
BC105A20
3D74ADC1
BE030D25
BC0F9A75
BD895988
BD7B6E12
BC6CA189
3BD3CD50
3C3613AB
BD7D1044
BEBECC08
3D2A9B33
BD509B60
3C88B3BC
3DC45B48
BC817C6E
3DA54286
BDB45028
3D832FDF
3D3621CB
3A570B58
3CA68916
3C28E037
BE049979
BC519A18
3CA10587
3DDA7900
3D8E543D
3D9B688E
BD5BC447
3C28DEE3
3E2C06A9
3D1217D7
BD8E0F41
BC5ED163
BD91B59B
3DA36136
BD9718FD
BD767D54
3E2BBB62
3D23C2CA
3D90406D
BBE36370
3DD9C3CF
BD2BC926
BE0871DD
3DA086A3
3C30C036
3B9499AB
BDAAB6B3
3E24D694
BCE9B95C
BDA5890A
3DFB888D
3D0C557E
3D1B70F3
3E1D2B50
3DD84186
BE0A6076
3DA134AA
BD83E115
BD75D2FF
BC90E18C
BDB61469
3D00EA6F
BDBEBA51
3DFB6ED0
3D6F495B
3D86E65A
BBD1BF01
3D645F87
BCFAAA09
3D35510D
BD22CB0C
BC8E8660
3DBEA61F
3D3095E0
3D99447D
BD9154B5
3D82D579
3D40674A
3C05DC27
BE0E3EC1
BD65A8BB
3D9EDE05
3CE5FE25
3CEA461E
BD588248
BC775F21
BDB3F2E0
BEB37AA1
BCA24F17
3C1850B8
BA6D3100
3DC5656B
3DA46129
BDBFF76D
3DB3613B
3D831186
3DC35E1A
3DAF3805
BC1918D3
BDB23631
3CCD759A
3C8197A4
BD576FF9
3CE122E5
BD26EC1C
BBD1431B
3CD3CC32
BC8ED9D3
3E244ACE
3D2DAA82
BDE147FD
BDF0535A
BCA0498C
BD033E0F
3DA48933
BE7E6533
3E3507D8
BD8B152A
BBE8A40C
BDA680CC
3E84EA46
BE242963
BDC3C92D
BD995F67
3CB32B2F
3D90DEFA
3E0D31DA
3E04B5CA
3D54F30A
3D7F9E25
BC960248
BD27BAA0
3DE4B617
3E1070B6
3E575C8D
BCD7360E
BD127D28
3BA68C7D
BDDCDD3C
BD9EC1E4
BCE52473
3C9B54E1
3CCD6047
3DAEEDD2
3BD53033
BC06F6C7
BBB6B184
3E0D583E
3E3149D4
BB904BEB
BD29B071
3CF9C70C
3DBC3731
BDC55137
BD90626D
3D827E0D
BD7CC9A4
3D172FEC
3D261F36
BE2EFBD1
BD2401B4
3D913279
3C42607C
BC37F8B2
3DC334B5
BA77B2DA
BB84F230
BEA23668
3BACF39B
3B40EDE9
BCED9D68
3DD6EDD6
BD772B55
3D1792C3
BD21C500
3BE74974
3CD07703
3D45F5E3
3D98E0F5
3C41D24F
BE0FE17A
3D70C642
3D950198
BDA629FD
3D7EEC6B
3CFEA37A
BDB87F10
3C0B2199
3DF2D3DB
3DE39059
BDAEE63B
BE3BA1FA
BE469464
3C61BDD2
3BF71F8D
BE2D4304
3DA10F22
BCB23EEC
3E3AA095
3D5A593A
3E882CD0
BCF5E144
BE56D609
BC912654
3DD7B637
3D98D8F5
3C903D12
3DFCBA51
BDB79694
BD25EF93
BD943DFE
3CB31297
3DB8179E
BCC479D5
3E2D5D11
3D3F380F
BB22F18E
3D0AA4F6
BE76E424
3D800B67
BDA441A7
3D25F452
3CC984FF
3E256B28
BC84F3C9
BC9312C5
BE101E81
3E11E878
3DD69CC1
BDA600A1
3C473B6E
BD83024D
3D90512F
BD89F44E
3D9433D9
BC123D49
BD0B0AC3
BD681DCF
3DB5C3AE
BE0375D8
3D960463
BCA3F7A5
BD9D6CBF
BD9623FF
3BDD0040
3D84006D
BDAE8992
BEBD4AAB
3D8CF12D
BDD98F18
3B82C3D0
3D661990
3DB5CD98
BD251F2B
BD194FD6
3D68134E
BD6E29C5
BC34E0DF
BCB86606
3D94D365
BE0A0A1A
BDB0AB54
BC0B7952
BDA110FA
BD9F41A7
3DCC1FCB
BD1038BA
3DB9D712
3E57D323
3D0A0BE7
BD050A2B
BE169148
BDD8186A
3D72FF1B
3D82F5DE
BDF3B797
3DE6D558
BD2F61A0
3E34230D
3BEFF630
3E16BD9F
BCD45094
BD37F8E3
3D05487A
3CACDC91
3D020CF7
3D145B2A
3DD6252B
BD834E55
3D3A7532
BCA47E83
3D9269C3
3D67B841
BD4159D8
3E53ACAC
BC07E758
BD7C35D1
BDABB0A9
BE263BC1
3D2E2BDD
3C63BBE1
3E02F267
BD359151
BB5F996E
3D35E440
BD4C0568
BE312EE0
3D65CA62
3E0CC509
BD13B3EA
BDBD0246
3C98D678
BD41F079
BDA0FC3F
3D27D826
BD79C1A5
3D95A635
BD3D28FB
3D1B9255
BDDD7819
BD0B60CE
BD3B05E0
3D9A01BB
BD409578
3D974C9F
3D0D9E44
3CE64564
BEDE6135
BCC23921
BD96EEE6
3A023880
3E12E6BF
3C7A3E9A
3D726A50
3DC1684F
3BD1708F
BDC0CD45
3D2727E0
3C62E995
BD0D5C8E
BE38B047
BDB9838F
BDA8B198
BD2FBB9C
BCFE6E18
3DFE0DCE
BD9EA053
BCE263B1
3E574A22
3C06E980
3A0337C4
BE7D6316
BE1F72BA
BD44698C
3D509397
BE15C246
3D597A0D
3D0DD308
3D4CD6EE
3D9B8C6D
3E2FB60C
BD072AB0
BDC11BDB
3BBC22C0
3E336697
BDAE64B7
3DC4AB73
3E04A7D3
BD83281D
BAB88073
BD56ABCD
3DC5CD39
3E2C27F5
3DEAB1D8
3DE6C812
3CD6A816
BD81B097
3AEF34A9
BE808DB1
BD554B9C
3D35970B
3BEE1CF1
3D883971
3DE86261
B992D87B
3CF545AE
BD60357E
3DAD1C28
3E14E10F
BDA1666E
BD91563A
BD1CA1AA
3D52CBCA
BD637A80
BD81CFA4
BD401E27
BDAC9974
BD8D6A2E
3D6D948F
BDB55D0A
3DAFA744
BDA842BB
BD4EFAF4
BD53976D
BDC038DB
BDBFC676
BD55BAA7
BF2224C2
3BB14FBF
3DBB51F3
3D2465D2
3E0C6B74
3DC1112C
3C65C5C6
3DC27383
3DC1CABB
BCB6E364
3D350072
3E1C6B9E
3BEC4988
BD41BCD1
BCB352B8
BDBC0B25
BE05EDFE
BD20656C
3DF866B0
3CC02861
3DF61B53
3E1EAFF5
BD1A42B0
3DAD64F2
BDEA22C2
BE08CCA6
BC879272
3C3DDD61
BE24BDD4
BCAB8F55
3D793391
3E6767A3
3DA79F3D
BC6D066D
3D77BD90
BDAD9576
3DBB223D
3BB961B4
BDB8FE37
BCD89EB0
3E15B5D5
3DA1212F
3CD9D694
BD95A31C
3D86D093
3E21B895
3C3DBCAF
3D746601
3BCB5EA4
BDC02955
BDAC4270
BE09E340
3C87A0DB
3D90C895
BC333A2D
3D305EEB
3D2B2305
BD47D935
BCFD962A
BD802ADE
BE02FA30
3D4B4BEE
BD9DAA39
BD2BDFAF
3DAADF1F
3D2F2D16
3DA4B33E
3C1CF866
3D4827A5
3D89C3AD
3D94FB29
3BAD9469
BD700BFB
BD33FAA4
3D9B8541
3D4A2BD1
BC91C0E8
BCFC621C
BA9B0D16
BCEDB6E4
BEF0AB30
BDA6E59B
3E02F1C2
BD6EE28D
BDAC8705
BDAB3167
3DA9BD73
BCD62FC4
BD0C8621
3C1A057D
BDA94A00
3E5D946D
BCCE2A9E
BE31E2ED
3DAE2615
BC55D043
BD9FD3BE
39ED786F
3D5332BE
3D78FF81
BDFFD21C
BE02B76D
BDB83481
3DE51F83
BCB38F40
BD865A3F
3D5BE024
BD986328
3D8F3226
BCB74E35
BD49D40F
3D805303
BCC2BC1C
BD4603A1
3D9216F4
BCF4458B
3BF0A8E0
BDAF1F95
BD5F54CC
3C3A6880
3CB288F6
BD8F24A6
BD1AA9E3
BDAD4D88
3DE344B0
BC6FF0F9
BCBCBBB9
BD1A8ED2
BC8584AA
BD203D8D
3D80F74A
BDC9D84A
BC811851
3D7D8777
BCE3B681
BC9D3C8D
BD6B5337
BDBE0AC2
3DD9E996
BDCA873C
BD3825AB
3D94B626
BDC232F7
BD8D51D3
3C5911F8
BC184978
3D37A134
3DA8DDA8
3D96A57D
BD698E64
BD0BCD83
BBB483FC
BD1DF3D2
BBE63093
BDC1661A
3D110576
3B902D1F
3D64DA96
3D97C550
3C8E9634
BED88B63
BD950EE5
3DC95DB1
BDC0001C
BD8DAB0B
3D8B1A49
BCD8F49C
3DA458DB
BCD973F9
3E3B7C49
3D0D5E98
3EA8969F
3DAF93EF
3D4F3E15
3D1EB1B2
BD1A919D
BB875810
BC2CE573
3DA523AC
BD7E3913
BDE2D85B
BE0F5E5B
BDBC2497
BDA90531
3E0E28E9
BCEB0FA1
BDAA5C49
BD8C20C3
3CAF4BCC
BBDA1E6C
BDCABEAA
BE2311EE
3AF842C0
BDCA7052
3DBE31B2
3DA64BC0
BDB7C197
BDBAF4F8
3B0FA0FC
BE446D9A
BDAF1AE3
3DB75AD7
3CCEFA4F
BB9E4BA4
3D286914
BCFDE9E1
3DD5C10D
BB087217
BDC885E5
BD90898A
BD24D625
3E0ACDDC
BC6AFEC0
3D0990D1
BE225A7E
3DA513BC
BD64A4D6
BDABB2D1
3E0A83C6
3DB07FB8
BD9BC6CC
BD5C5744
3C39914D
BDA19CAC
BCF57750
3C607220
3D695FC2
BC56AA94
BCFE28FF
BC9D4154
BDA1D3F7
BC1C54F5
BD3AD993
BCD25A18
BD39DFC9
BC19B8D9
BD78DC8C
BC67D060
BCFD8977
BDA292DC
BF000938
3D85A953
BC8A6FFA
3D77C1B2
BDD3F7F3
3D577BCA
BC0CBD18
3CEFF788
BE5FB1CD
3E72B5A2
BCC103BA
3ECC0D2D
BD293E64
3E11315F
BCD2B454
3D0EC009
3C86035E
3CAACE42
3D5F1FA4
3D7B7707
3B52DA7C
BEAAE8C5
3D613E4A
BE464A23
3E899939
3DEDBDE1
BD21365E
3A976AD4
BD8EF2C5
3E43F4F8
BDA0C586
BEB120A5
39988700
BC7BDFE3
BDB4983D
3CB50596
BAFF2D00
3E5CA71F
3D7F6F6D
BE554367
3DA09F3B
3DA80659
BDCD1710
BDEE8D9E
BDBD678E
BD983EB9
3E3A763C
BD2EB88D
BE7737AA
3D6AB6E3
BC17C307
3D82FA4F
BD2D9C7A
BDB9F6A0
BE2DAC2E
3B4C04D6
3C055DA8
3CB32159
BD84AD37
3D875668
3D92FD90
3C470523
3C4B8685
BD98BB44
3D8CDC31
BDB33F64
BDCD86C8
BCA2C943
3CEBE51F
BD6DB065
BC0FF059
BDBC005E
BDFF8A9C
BD745AC4
BD779E37
BDAE1537
BB8401D3
3D06865E
BD9D471B
BCCE3078
3BCE2AF6
3DD8E367
3D5C5371
BD6B06EA
3DFB1901
BA455FFA
3D60A2B9
3D0740A6
BE8B5083
3EA24C19
3D856D0E
3E9BF616
BD7F4A0C
3E322D01
BCF649B4
3DA566DE
3E60108C
3B100C1C
BE22ECC1
3D1D8517
BCBC5AF9
BE533EEC
3D801534
BE79E587
3D9D040D
3C5B39C7
BC89D01C
BD3456D1
BE071474
3C95579B
3ACA71AE
BE351DED
3C908C1C
BD24F7FB
3CE10D38
BE211D43
BD9068EA
3E652E8E
3B255EC8
BDE602A0
3D8BC916
3BCF9DD0
BDB21E90
BDB6CD2B
3CDE9B16
3D419FA0
3D96B807
3D3C18A9
BE941AAE
BD8C5154
3B8D79AC
BCA1DE4D
3D670B36
BC8FFFE2
BE46E792
3CBDA645
BE0A226E
BD798169
3D7D685B
BDF0826E
BD6F5105
3E74A088
3D824B75
BE062BD1
BCAE2AF0
3D363ABA
BA800C8F
BD19CFE7
3CB093A7
BD3C4C20
BD1EE554
3C7D5209
BD928A28
3D315B67
BD132B3B
BD5835FE
3D382F43
3DC0F5B1
3DA6A0D2
BD60357F
3CEB9AEA
3E017BB5
3BA90EAE
BC278818
3E1FFA32
BCCFDAE1
BDC44299
BDB10C23
BE3238CB
3E8C16E3
BD16A3E8
3E1F3B2D
BC8E023F
3E2DC603
3CD4DD1C
3C65C0D0
3CF190E2
3D539007
BE440772
3D88832C
3CF60D1D
3DE8B298
BC08BE87
BE001F26
BE3BC4FD
BE5CD7B8
BC48E819
3C2C66FA
BDE18F7F
3DF3F087
BD068634
3E204361
BDBC70B1
3DE1CD78
BDB274A6
BE09B292
3C742800
BC7F567C
3D4AFEEC
BBB3509C
3E20208B
BD848794
BDB39B6F
BDF716E8
3E2BE62D
3E11AD49
3DBBC47D
3DC49014
BD800236
3D94AE6C
BDA9473C
BE42BD69
3D8EE63B
BD74F948
3C615B3B
3D8EC62B
BD208CD3
3C8A5CC2
3D044DB1
BE17DD61
3BFD8C77
3E56CF0A
BD8871AD
BE1A1636
BD94A4BA
BB545EA0
3CA788D8
BD9BEDCC
BCD0BD16
BC6934A0
BD4048B7
3D3268EE
BDEE44FF
BC371632
3D2411AC
BC530561
BDC7AB54
BD9EF482
BCABF30F
3C784DA8
BDA8BDBB
3DA5536E
BC03C4B1
BCB84430
3AE976FD
3D9B894F
BC5DF2AA
BDB23ACE
3DB7604D
BBF7E47C
3C6579BD
BDF3307F
BD1BF35F
BDF19075
BD7379C8
BD55693A
BDACA643
BD0FF028
BD4F54CB
3C806B07
3E1EB81B
3E13F2C2
3A8B3A92
BDA5C77A
BE811838
BE657DC0
3D709D9B
3D5C877B
BE099590
3E478E7F
BB4366D6
3E57D495
BBB2F8F0
3E9AC3CA
BDFBA21D
BE77BA01
3D08E852
3E04B9D4
3DB769BB
3E2D6A88
3E3E74EF
BDB24C9E
BD38A27C
BE36C4B3
3D812A02
3DFF9E70
3DE0F252
3E78F444
BE03555E
BD3B9F84
BCB09584
BE56BD25
3DA9AF20
BDAC2224
3D2F15BC
3DA1BCD2
3D97B5A2
3D49D349
3C7E68FA
BE670CF5
BB810E53
3E800A2B
3D44426E
BE62FDB3
BDAA930B
3D45A126
BD7F3FD1
BCD7482F
3A55A4A9
BDA77462
3C54F539
BD89AC8F
BE6CFB5E
3CFC232B
BBEDAD53
3D459F55
BD9BDBB4
BD946FD4
3DB6C7A3
BD4D30BC
3D958467
3CDC3A20
3DB3318E
3D122562
3DBA6376
BC148799
BD6CC342
3CD5D530
3DBD0615
BDD2C0FB
3C3B2AB8
3D9C5524
3D0477B3
BD833AC0
3CC91D28
3C931F30
BE7180C2
3BFCA52D
BE3FC669
3CE81063
3DE13C20
3E84C6C4
3DA28B2C
BE157426
BE42A116
BE0A33A2
3DB73E42
BD05DBF3
BE7AAE3F
BB9AA3A2
3D9877DD
3E8E35FC
3CAF9C48
3E121227
BD859275
BDE8F4F7
BD15B048
BC0F649C
3D928CC3
3DD9CA63
3E7FA410
3CDB5974
3CFA46FE
BBD7CF10
3D360CB2
3DA8EFD3
BD5C09B6
3E63A7DE
BE05C84E
BD8BAC7E
BD9664BF
BE8027F1
BDC34D6E
3D58A204
3E56B6E7
3DB20A57
3C4FECC6
3DA9A0EC
BB40345C
BD87EDA6
3D2BFE02
3E4ADF2B
3D5E21C9
BCB482B8
3C5CBA58
BDA8E88E
3D1B4C25
3D8E944A
3DA362BF
3DAC7C11
3D77BD1F
BD6B1220
BE559719
3C543F85
BD0D9668
BC0012FB
BD85D204
3D9330ED
3D0A5E8A
BDBCFED2
3D636A2C
BDE71273
3E0720B2
BD5DEEFF
BD37C708
3D9A43F5
BD6E28C7
BD71CFB2
3D9A3E36
BE2F215D
3D2525F2
BC561D34
3D965B03
BDA309B9
3C0318F8
BDA76925
BE1224EC
BDBF95C8
BC3A0891
BCC59736
B8B058FA
3E2F3E37
BD90B934
BDFA0EE5
BE436355
BD8D79B4
BBC51CD5
BD90CB35
BE0A6FB8
3BED4AED
3D032CBE
3E1F92DD
3D1FFF0E
3E84EF17
BE054173
BE200352
3DC36CF1
3DB8F0EA
3D346192
3BC636F5
3E696130
BD748A58
BCBEFF41
BD8C0837
BBB7762F
3E0D6F39
3D14B779
3E511B54
BDCC8D09
3D8738FE
BC712EC1
BE1751AA
3CA55129
BD7C2F31
3E02AF02
BDA68B7E
3D24A4DD
BD034638
3D123006
BE370D29
BC9DBB3B
3E0A2A34
3CE59440
BD1473AE
BD699D81
BD858B20
3C082BDE
BCD23170
3D5F5B4A
BCB3614C
3D7E922F
3CB5E493
BE49577A
3D61BF9C
BD8EB8B8
BD839119
BC261EBD
BDA28EEC
3CDC8846
BCA47CA8
3D9B86F1
3D4D61A4
3DFB3849
BC9A1FCC
3CD42FFC
BB70649A
3D3C3D39
B92AA400
3E09D29D
BD06F5D3
BD9997B6
3D6C13AF
BCAE08EC
BD08BC88
3D9A9B85
BD2B7DDF
BE021749
BD0A6F30
BD84D673
BD630FF1
3D662BE6
3DC996F7
BB224E2D
BCA0D520
BE2C9BA2
BD9140B5
3CC339EB
3BCAEB93
BE05CC48
3D811838
3DB116E4
3DC07317
BDAB4D0F
3E2175F2
BB8A8675
BC46C2BB
BD22D7FA
3D0AA4F1
3D808457
3DA48A04
3D94B7CF
BD3C08F0
3D8AB868
3D87672C
3DF71E2D
3C018EE6
BD02910A
3E3801A4
BE0B59B6
BC84E2A0
BD556259
BE35014B
BD80EC6C
3CBFB95E
3CDDA73B
BCA05CD8
3E37A52F
BDA2A5DA
3BF649CC
BDAAD1A2
BDC3BDC5
3E098AC4
3DA4120E
BE2148AC
3D14CCC2
BD51B0D8
3CAF8D37
BD55C400
3CDC8D87
3CC10F20
BDB6DE21
BDB43038
BDEA2760
BD5F697C
3D9D3657
3D35BA9E
3D1C11F9
BD875083
3CBEB137
3D8D42D5
BCFF5250
BB0DB350
3D9744C8
BD9289C8
BCB1BE41
3B52F2F3
BD37A7FC
BC853288
BD27C38B
BE1EBF64
3CE20570
3D2EFE40
3CF31998
BDC104FB
BC898F90
3C644CC5
BD464622
3D73911B
BD54BDD2
BCB6536D
BD8DB251
3E5F9698
BD2AE596
BE12CBCC
BBDD3A80
BD5A36A4
3D4B3ABE
3D8903DD
BDC35D5A
3D9CA4B1
BCA3ED92
BC594E49
3CA83AD8
3DFD6C0B
3D81EA50
BE17BD4B
BC1672F0
BD2F170B
3DA2F5D8
BDD144DD
3E31F10A
BD3F40AE
BD20C821
3CBBF6FA
BC06041A
3BB942CD
3E318FBA
3DE529AD
BDD8093C
3DAA11FF
3B87E3C0
BE24D910
3CDAFC33
BDC1F76E
BCE42BDE
BD01F41E
3E2E26DE
BD9393B3
3CA2F1BC
BC45C66A
BD899170
3CC84CDF
3D4F56E4
BD9012AD
3DC1D09D
BBBA1300
BD832976
BDAFEA7A
3D386E3D
BCA121D8
3D25638B
3C18C735
BE2748D7
BDCDBCC2
3C63BA14
BDCB7383
3CC8B7EF
BDAA0568
BCCEBC3C
3DAFCD93
BD80269C
3D05219D
3E3FFDAE
3D9BB8E9
3E42F9E2
3D999A43
BD07938F
BD98E705
3CC9E82A
BD0AA9A3
BC4CBC64
3E49471E
BD2BE13C
BC49170E
BCF1172C
BD0035D2
BD299CDE
3B075464
BDCAABFA
BD4966DF
BD389C5B
3E66C8CE
3B87A154
BE20B3E7
BD4D5C64
BE320438
BD423663
3D7EE7C2
BE13F323
BC211864
3D9B6E95
BD5ACCA9
BB824C20
3E5E993D
BDCD6A4B
BD85DC2C
BD3DF047
BC1375F3
BDB86BF1
BDED7AE6
3E74EACE
BD82BA7A
3D8A914D
3D895A69
3DC9B8C5
BCD2754A
3DF752A2
3E04099F
BE26E05E
3D72BED5
BC07E93F
BD808F5B
BDAAED76
3D8FD9B9
BD87E7C0
BDB0A894
3DD270D3
BDA86E7B
3DB44DA9
3DA14FAD
BDA817DC
3E0BD7C0
3D3071C4
BE15EC44
BCEEB740
BCD99770
3D43477D
BCDF4AAB
BD102554
BCB81320
BC1A5F0F
BDAE35A2
BE80C7E7
3D35D70F
BD467E24
3D9BA903
3DA72B7F
BD47890A
3D4B06A7
BDA0177F
BD9E0323
3D52AA1D
3E4F34EF
BD91C808
3D906F29
BDC8E42B
BCA15278
BDA0F8C8
3B02BB32
3CAE7458
3D9DF91F
3E6BB33F
BB4941A4
BE0CFD4F
BD1EAA9E
3D337C93
3DCE0BEC
BDBB8383
BDAFB500
3D718B23
BDCDF131
3E030259
3D70E06E
BD80362C
BCF407A9
BDC0FF65
3D21228D
BD9F69F6
BDFB2801
BCD16BB9
3BF46A10
BD143BAC
3D470EAA
3DC2D13C
3D4E8537
3CCA78A0
3D7459BE
3D9FBE56
3C794235
BC30F7CB
3D9DE762
BC9D285C
BC9AE49F
3DDD3B3E
3D7A9F98
BD01E6CC
3C538388
3E4AB165
BD0D72C6
3D924BD2
BD4A8C68
BDF9C6EA
BD3A3B0B
BDB7E56F
BE0B4E55
3CEEA977
3E5A00FF
3D14FE01
3DB9E558
3DC63570
BDB672F5
3CB3221C
BD8784F4
BD81AD3A
BC4304D8
3D626AF2
3C143A8E
3D8B3507
3D8FB575
BDA8690F
3D78E4CE
3C2F8251
BDDF77BD
3DAD9278
BC6DCD4A
BC91EF53
3D6D2B18
BD39BB20
BD3DF0FF
BDAE33AA
3D18174F
BD0CA26D
3E3EAA64
3B6D9BE0
3DF52FF8
BD493FBE
BDA02350
BDA12CAA
3CF5C662
3E188637
BC2DA780
3E2CCAE4
BCF926C6
BD1DCF18
3DBA8A19
BD560C90
3D2DA9FD
3D954F18
3CE0A89F
BD87046F
BD23089B
3E77C5C0
3CDAA0AE
3D0EE834
3D2B88E7
3CD8A9A1
3D929920
BDB58463
BD8F61E4
3E02B973
BDA94249
3C8EE62D
BC123268
3BA2895D
3D68FEB8
BCBC9C80
3D2D587E
3C837844
3D38F7EC
BE1058E6
3DDB22D6
BD4E58E0
3DB16E85
3E58A4F6
3DCAAD83
3C275EAE
3E119DC1
3D99287F
BDA0D563
3D48095A
3D9A5A71
BD9F9180
BDA009FA
3D4C701B
3BA5A15F
3CF17CA2
3E8CC431
BC930977
3E24176E
3DDADE77
3D631654
BC6FC7E5
BBE98877
BDB2646B
BDB8D2A2
3D7BB31A
3D1950A9
3C568088
3D0E5701
BD3B5580
BCE9C0C3
3D3DBC32
BDF560D1
BD7745FC
3D76896C
BBB22DED
BDAA51B3
3CCE6E7C
BD2DF49E
3D1E7FC6
BC2930D6
3D1EFB32
3E55BE21
BCF0C0B4
3E19BB17
3D903A4F
BD8A2647
3D9D35DD
BD5058F0
3D854F56
